{
    "version": "1.0",
    "truncation": null,
    "padding": null,
    "added_tokens": [],
    "normalizer": {
        "type": "Sequence",
        "normalizers": [
            {
                "type": "Prepend",
                "prepend": " "
            },
            {
                "type": "NFKC"
            },
            {
                "type": "Replace",
                "pattern": {
                    "Regex": "\n"
                },
                "content": "\n "
            },
            {
                "type": "Replace",
                "pattern": {
                    "Regex": " *\n"
                },
                "content": "\n"
            }
        ]
    },
    "pre_tokenizer": {
        "type": "Sequence",
        "pretokenizers": [
            {
                "type": "Split",
                "pattern": {
                    "Regex": "[^\\r\\n\\p{L}\\p{N}]?[\\p{Lu}\\p{Lt}\\p{Lm}\\p{Lo}\\p{M}]*[\\p{Ll}\\p{Lm}\\p{Lo}\\p{M}]+|[^\\r\\n\\p{L}\\p{N}]?[\\p{Lu}\\p{Lt}\\p{Lm}\\p{Lo}\\p{M}]+[\\p{Ll}\\p{Lm}\\p{Lo}\\p{M}]*|\\p{N}| ?[^\\s\\p{L}\\p{N}]+[\\r\\n/]*|\\s*[\\r\\n]+|\\s+(?!\\S)|\\s+"
                },
                "behavior": "Isolated",
                "invert": false
            },
            {
                "type": "ByteLevel",
                "add_prefix_space": false,
                "trim_offsets": true,
                "use_regex": false
            },
            {
                "type": "Split",
                "pattern": {
                    "Regex": ".{1,24}"
                },
                "behavior": "Isolated",
                "invert": false
            }
        ]
    },
    "post_processor": {
        "type": "TemplateProcessing",
        "single": [
            {
                "SpecialToken": {
                    "id": "<s>",
                    "type_id": 0
                }
            },
            {
                "Sequence": {
                    "id": "A",
                    "type_id": 0
                }
            }
        ],
        "pair": [
            {
                "SpecialToken": {
                    "id": "<s>",
                    "type_id": 0
                }
            },
            {
                "Sequence": {
                    "id": "A",
                    "type_id": 0
                }
            },
            {
                "SpecialToken": {
                    "id": "<s>",
                    "type_id": 0
                }
            },
            {
                "Sequence": {
                    "id": "B",
                    "type_id": 0
                }
            }
        ],
        "special_tokens": {
            "<s>": {
                "id": "<s>",
                "ids": [
                    1
                ],
                "tokens": [
                    "<s>"
                ]
            }
        }
    },
    "decoder": {
        "type": "Sequence",
        "decoders": [
            {
                "type": "ByteLevel",
                "add_prefix_space": true,
                "trim_offsets": true,
                "use_regex": true
            },
            {
                "type": "Strip",
                "content": " ",
                "start": 1,
                "stop": 0
            },
            {
                "type": "Replace",
                "pattern": {
                    "String": "\n "
                },
                "content": "\n"
            }
        ]
    },
    "model": {
        "type": "BPE",
        "dropout": null,
        "unk_token": "<unk>",
        "continuing_subword_prefix": null,
        "end_of_word_suffix": null,
        "fuse_unk": false,
        "byte_fallback": false,
        "ignore_merges": true,
        "vocab": {
            "<unk>": 0,
            "<s>": 1,
            "</s>": 2,
            "<pad>": 3,
            "<mask>": 4,
            "<special_0>": 5,
            "<special_1>": 6,
            "<special_2>": 7,
            "<special_3>": 8,
            "<special_4>": 9,
            "<special_5>": 10,
            "<special_6>": 11,
            "<special_7>": 12,
            "<special_8>": 13,
            "<special_9>": 14,
            "<special_10>": 15,
            "!": 16,
            "\"": 17,
            "#": 18,
            "$": 19,
            "%": 20,
            "&": 21,
            "'": 22,
            "(": 23,
            ")": 24,
            "*": 25,
            "+": 26,
            ",": 27,
            "-": 28,
            ".": 29,
            "/": 30,
            "0": 31,
            "1": 32,
            "2": 33,
            "3": 34,
            "4": 35,
            "5": 36,
            "6": 37,
            "7": 38,
            "8": 39,
            "9": 40,
            ":": 41,
            ";": 42,
            "<": 43,
            "=": 44,
            ">": 45,
            "?": 46,
            "@": 47,
            "A": 48,
            "B": 49,
            "C": 50,
            "D": 51,
            "E": 52,
            "F": 53,
            "G": 54,
            "H": 55,
            "I": 56,
            "J": 57,
            "K": 58,
            "L": 59,
            "M": 60,
            "N": 61,
            "O": 62,
            "P": 63,
            "Q": 64,
            "R": 65,
            "S": 66,
            "T": 67,
            "U": 68,
            "V": 69,
            "W": 70,
            "X": 71,
            "Y": 72,
            "Z": 73,
            "[": 74,
            "\\": 75,
            "]": 76,
            "^": 77,
            "_": 78,
            "`": 79,
            "a": 80,
            "b": 81,
            "c": 82,
            "d": 83,
            "e": 84,
            "f": 85,
            "g": 86,
            "h": 87,
            "i": 88,
            "j": 89,
            "k": 90,
            "l": 91,
            "m": 92,
            "n": 93,
            "o": 94,
            "p": 95,
            "q": 96,
            "r": 97,
            "s": 98,
            "t": 99,
            "u": 100,
            "v": 101,
            "w": 102,
            "x": 103,
            "y": 104,
            "z": 105,
            "{": 106,
            "|": 107,
            "}": 108,
            "~": 109,
            "¡": 110,
            "¢": 111,
            "£": 112,
            "¤": 113,
            "¥": 114,
            "¦": 115,
            "§": 116,
            "¨": 117,
            "©": 118,
            "ª": 119,
            "«": 120,
            "¬": 121,
            "®": 122,
            "¯": 123,
            "°": 124,
            "±": 125,
            "²": 126,
            "³": 127,
            "´": 128,
            "µ": 129,
            "¶": 130,
            "·": 131,
            "¸": 132,
            "¹": 133,
            "º": 134,
            "»": 135,
            "¼": 136,
            "½": 137,
            "¾": 138,
            "¿": 139,
            "À": 140,
            "Á": 141,
            "Â": 142,
            "Ã": 143,
            "Ä": 144,
            "Å": 145,
            "Æ": 146,
            "Ç": 147,
            "È": 148,
            "É": 149,
            "Ê": 150,
            "Ë": 151,
            "Ì": 152,
            "Í": 153,
            "Î": 154,
            "Ï": 155,
            "Ð": 156,
            "Ñ": 157,
            "Ò": 158,
            "Ó": 159,
            "Ô": 160,
            "Õ": 161,
            "Ö": 162,
            "×": 163,
            "Ø": 164,
            "Ù": 165,
            "Ú": 166,
            "Û": 167,
            "Ü": 168,
            "Ý": 169,
            "Þ": 170,
            "ß": 171,
            "à": 172,
            "á": 173,
            "â": 174,
            "ã": 175,
            "ä": 176,
            "å": 177,
            "æ": 178,
            "ç": 179,
            "è": 180,
            "é": 181,
            "ê": 182,
            "ë": 183,
            "ì": 184,
            "í": 185,
            "î": 186,
            "ï": 187,
            "ð": 188,
            "ñ": 189,
            "ò": 190,
            "ó": 191,
            "ô": 192,
            "õ": 193,
            "ö": 194,
            "÷": 195,
            "ø": 196,
            "ù": 197,
            "ú": 198,
            "û": 199,
            "ü": 200,
            "ý": 201,
            "þ": 202,
            "ÿ": 203,
            "Ā": 204,
            "ā": 205,
            "Ă": 206,
            "ă": 207,
            "Ą": 208,
            "ą": 209,
            "Ć": 210,
            "ć": 211,
            "Ĉ": 212,
            "ĉ": 213,
            "Ċ": 214,
            "ċ": 215,
            "Č": 216,
            "č": 217,
            "Ď": 218,
            "ď": 219,
            "Đ": 220,
            "đ": 221,
            "Ē": 222,
            "ē": 223,
            "Ĕ": 224,
            "ĕ": 225,
            "Ė": 226,
            "ė": 227,
            "Ę": 228,
            "ę": 229,
            "Ě": 230,
            "ě": 231,
            "Ĝ": 232,
            "ĝ": 233,
            "Ğ": 234,
            "ğ": 235,
            "Ġ": 236,
            "ġ": 237,
            "Ģ": 238,
            "ģ": 239,
            "Ĥ": 240,
            "ĥ": 241,
            "Ħ": 242,
            "ħ": 243,
            "Ĩ": 244,
            "ĩ": 245,
            "Ī": 246,
            "ī": 247,
            "Ĭ": 248,
            "ĭ": 249,
            "Į": 250,
            "į": 251,
            "İ": 252,
            "ı": 253,
            "Ĳ": 254,
            "ĳ": 255,
            "Ĵ": 256,
            "ĵ": 257,
            "Ķ": 258,
            "ķ": 259,
            "ĸ": 260,
            "Ĺ": 261,
            "ĺ": 262,
            "Ļ": 263,
            "ļ": 264,
            "Ľ": 265,
            "ľ": 266,
            "Ŀ": 267,
            "ŀ": 268,
            "Ł": 269,
            "ł": 270,
            "Ń": 271,
            "Ġt": 272,
            "he": 273,
            "Ġa": 274,
            ".\\": 275,
            "in": 276,
            "Ġw": 277,
            "Ġthe": 278,
            "ou": 279,
            "Ġs": 280,
            "re": 281,
            "Ġo": 282,
            "ha": 283,
            "er": 284,
            "Ġb": 285,
            "nd": 286,
            "it": 287,
            "is": 288,
            "Ġy": 289,
            "Ġc": 290,
            "Ġm": 291,
            "Ġd": 292,
            "on": 293,
            "Ġf": 294,
            "ing": 295,
            "OT": 296,
            "MOT": 297,
            "ll": 298,
            "Ġyou": 299,
            "Ġto": 300,
            "*MOT": 301,
            "an": 302,
            "es": 303,
            "or": 304,
            "ed": 305,
            "Ġp": 306,
            "hat": 307,
            "Ġg": 308,
            "en": 309,
            "Ġl": 310,
            "?\\": 311,
            "CH": 312,
            "Ġand": 313,
            "ĠI": 314,
            "CHI": 315,
            "Ġn": 316,
            "ar": 317,
            "Ġof": 318,
            "*CHI": 319,
            "as": 320,
            "Ġin": 321,
            "at": 322,
            "om": 323,
            "Ġhe": 324,
            "ow": 325,
            "Ġh": 326,
            "'s": 327,
            "Ġit": 328,
            "ot": 329,
            "Ġha": 330,
            "le": 331,
            "ve": 332,
            "Ġthat": 333,
            "ay": 334,
            "Ġth": 335,
            "et": 336,
            "Ġon": 337,
            "ic": 338,
            "us": 339,
            "gh": 340,
            "id": 341,
            "Ġbe": 342,
            "\\\"": 343,
            "Ġis": 344,
            "Ġwe": 345,
            "ld": 346,
            "Ġe": 347,
            "al": 348,
            "ut": 349,
            "oo": 350,
            "Ġwas": 351,
            "im": 352,
            "ke": 353,
            "'t": 354,
            "ac": 355,
            "ad": 356,
            "Ġdo": 357,
            "Ġre": 358,
            "ver": 359,
            "Ġu": 360,
            "ght": 361,
            "Ġfor": 362,
            "Ġr": 363,
            "ir": 364,
            "ly": 365,
            "ion": 366,
            "se": 367,
            "ent": 368,
            "am": 369,
            "Ġst": 370,
            "Ġ=": 371,
            "ĠM": 372,
            "ĠS": 373,
            "ĠT": 374,
            "out": 375,
            "Ġk": 376,
            "st": 377,
            "ith": 378,
            "Ġme": 379,
            "ight": 380,
            "ĠA": 381,
            "Ġan": 382,
            "ea": 383,
            "her": 384,
            "!\\": 385,
            "Ġwith": 386,
            "Ġwhat": 387,
            "Ġwh": 388,
            "ome": 389,
            "Ġgo": 390,
            "Ġse": 391,
            "all": 392,
            "ur": 393,
            "ĠC": 394,
            "âĢ": 395,
            "Ġas": 396,
            "ch": 397,
            "Ġnot": 398,
            "Ġli": 399,
            "Ġat": 400,
            "ter": 401,
            "ĠB": 402,
            "ould": 403,
            "Ġhave": 404,
            "ill": 405,
            "Ġthis": 406,
            "ro": 407,
            "..": 408,
            "Ġkn": 409,
            "Ġare": 410,
            "Ġno": 411,
            "ĠH": 412,
            "ie": 413,
            "]\\": 414,
            "ce": 415,
            "\\n": 416,
            "Ġthere": 417,
            "if": 418,
            "Ġcan": 419,
            "il": 420,
            "ust": 421,
            "ook": 422,
            "ct": 423,
            "ant": 424,
            "Ġone": 425,
            "Ġhis": 426,
            "Ġthey": 427,
            "Ġknow": 428,
            "Ġshe": 429,
            "Ġj": 430,
            "Ġso": 431,
            "Ġdon": 432,
            "Ġyour": 433,
            "un": 434,
            "xx": 435,
            "Ġwhe": 436,
            "Ġfr": 437,
            "Ġ[": 438,
            "eah": 439,
            "Ġup": 440,
            "ain": 441,
            "and": 442,
            "Ġher": 443,
            "Ġ\\\"": 444,
            "op": 445,
            "Ġne": 446,
            "ell": 447,
            "ore": 448,
            "Ġmy": 449,
            "um": 450,
            "ĠP": 451,
            "ĠD": 452,
            "Ġall": 453,
            "Ġhad": 454,
            "ab": 455,
            "The": 456,
            "our": 457,
            "Ġbut": 458,
            "ge": 459,
            "Ġlike": 460,
            "Ġsh": 461,
            "ĠW": 462,
            "pp": 463,
            "Ġde": 464,
            "art": 465,
            "ood": 466,
            "Ġsa": 467,
            "ack": 468,
            "ri": 469,
            "ol": 470,
            "Ġout": 471,
            "Ġhim": 472,
            "ĠJ": 473,
            "Ġget": 474,
            "ck": 475,
            "ink": 476,
            "ĠF": 477,
            "ake": 478,
            "ul": 479,
            "ĠThe": 480,
            "Ġab": 481,
            "ry": 482,
            "Ġpl": 483,
            "Ġdid": 484,
            "'re": 485,
            "th": 486,
            "ĠG": 487,
            "el": 488,
            "...\\": 489,
            "You": 490,
            "Ġal": 491,
            "AT": 492,
            "Ġsee": 493,
            "Ġfrom": 494,
            "ig": 495,
            "*F": 496,
            "Ġlook": 497,
            "ess": 498,
            "ĠL": 499,
            "han": 500,
            "IN": 501,
            "very": 502,
            "ation": 503,
            "Ġoh": 504,
            "red": 505,
            "Ġor": 506,
            "Ġhere": 507,
            "ĠR": 508,
            "ers": 509,
            "Ġwere": 510,
            "'m": 511,
            "est": 512,
            "qu": 513,
            "Ġby": 514,
            "Ġsu": 515,
            "ist": 516,
            "na": 517,
            "Ġyeah": 518,
            "nt": 519,
            "ound": 520,
            "ra": 521,
            "ĠN": 522,
            "ame": 523,
            "os": 524,
            "ind": 525,
            "itt": 526,
            "Ġthem": 527,
            "Ġsome": 528,
            "*FAT": 529,
            "Ġjust": 530,
            "ard": 531,
            "res": 532,
            "Ġcom": 533,
            "Ġthink": 534,
            "ĠE": 535,
            "ong": 536,
            "one": 537,
            "Ġgot": 538,
            "own": 539,
            "Ġwant": 540,
            "Ġabout": 541,
            "ak": 542,
            "use": 543,
            "Ġwho": 544,
            "ast": 545,
            "ive": 546,
            "em": 547,
            "Ġwor": 548,
            "ally": 549,
            "Ġwould": 550,
            "Ġsp": 551,
            "INV": 552,
            "].\\": 553,
            "*INV": 554,
            "ap": 555,
            "Ġright": 556,
            "'ll": 557,
            "Ġsaid": 558,
            "Ġif": 559,
            "Ġnow": 560,
            "ate": 561,
            "ĠO": 562,
            "Ġv": 563,
            "\"\\": 564,
            "ep": 565,
            "ick": 566,
            "Ġcon": 567,
            "Ġbo": 568,
            "Ġex": 569,
            "ort": 570,
            "xxx": 571,
            "Ġxxx": 572,
            "Ġany": 573,
            "ice": 574,
            "--": 575,
            "Ġthen": 576,
            "kay": 577,
            "Ġsay": 578,
            "ven": 579,
            "ich": 580,
            "ime": 581,
            "fe": 582,
            "ber": 583,
            "Ġtw": 584,
            "Ġwhen": 585,
            "Ġman": 586,
            "ough": 587,
            "other": 588,
            "hi": 589,
            "ag": 590,
            "Ġus": 591,
            "Ġput": 592,
            "Ġwill": 593,
            "Ġgood": 594,
            "hing": 595,
            "Ġwhere": 596,
            "ies": 597,
            "ide": 598,
            "ine": 599,
            "Ġpro": 600,
            "Ġ(": 601,
            "Ġint": 602,
            "od": 603,
            "ous": 604,
            "ittle": 605,
            "ther": 606,
            "au": 607,
            "ear": 608,
            "Ġag": 609,
            "Ġdown": 610,
            "Ġtr": 611,
            "It": 612,
            "Ġback": 613,
            "ose": 614,
            "Ġer": 615,
            "Ġlittle": 616,
            "ost": 617,
            "ĠHe": 618,
            "Ġgoing": 619,
            "ca": 620,
            "Ġcome": 621,
            "Ġcould": 622,
            "Ġtime": 623,
            "way": 624,
            "Ġbeen": 625,
            "Ġcl": 626,
            "âĢĻ": 627,
            "'ve": 628,
            "Ġmore": 629,
            "Ġover": 630,
            "Ġbr": 631,
            ".\\\"\\": 632,
            "Ġwhich": 633,
            "Ġwell": 634,
            "Ġvery": 635,
            "Ġhas": 636,
            "lf": 637,
            "âĢľ": 638,
            "ity": 639,
            "ove": 640,
            "Ġoff": 641,
            "Ġar": 642,
            "Ġokay": 643,
            "ace": 644,
            "Ġtwo": 645,
            "Ġtoo": 646,
            "ree": 647,
            "ite": 648,
            "ĠIt": 649,
            "\"Ċ": 650,
            "Ġ\"": 651,
            "AR": 652,
            "Ġqu": 653,
            "Ġhow": 654,
            "âĢĿ": 655,
            "ĠU": 656,
            "He": 657,
            "Ġ=\\": 658,
            "Ġlet": 659,
            "Ġ\"=": 660,
            "Ġother": 661,
            "Ġplay": 662,
            "Ġpe": 663,
            ",\\\"": 664,
            "cause": 665,
            "*E": 666,
            "Ġtheir": 667,
            "Ġthing": 668,
            "ĠK": 669,
            "Ġbl": 670,
            "Ġfe": 671,
            "are": 672,
            "What": 673,
            "ft": 674,
            "ure": 675,
            "Ġthan": 676,
            "Ġ'": 677,
            "my": 678,
            "Ġle": 679,
            "ment": 680,
            "Ġgr": 681,
            "Ġaf": 682,
            ".\"Ċ": 683,
            "ish": 684,
            "reat": 685,
            "alk": 686,
            "ud": 687,
            "ond": 688,
            "add": 689,
            "Ġyes": 690,
            "te": 691,
            "XP": 692,
            "And": 693,
            "onna": 694,
            "Yeah": 695,
            "ase": 696,
            "orn": 697,
            "urn": 698,
            "Ġro": 699,
            "*EXP": 700,
            "Ġgonna": 701,
            "Ġdoes": 702,
            "omet": 703,
            "ue": 704,
            "ought": 705,
            "iss": 706,
            "age": 707,
            "ian": 708,
            "hed": 709,
            "Ġmake": 710,
            "uck": 711,
            "Ġinto": 712,
            "Ġagain": 713,
            "ople": 714,
            "ect": 715,
            "iv": 716,
            "Ġway": 717,
            "Ġam": 718,
            "irst": 719,
            "Ġtake": 720,
            "ia": 721,
            "ty": 722,
            "ass": 723,
            "ount": 724,
            "No": 725,
            "Oh": 726,
            "ble": 727,
            "ire": 728,
            "ps": 729,
            "ary": 730,
            "Ġsomet": 731,
            "ade": 732,
            "PAR": 733,
            "Ġen": 734,
            "*PAR": 735,
            "Ġwork": 736,
            "Ġuh": 737,
            "Ġpeople": 738,
            "Ġtell": 739,
            "Ġco": 740,
            "Ġpr": 741,
            "Ġwat": 742,
            "Ġsha": 743,
            "ov": 744,
            "Ġneed": 745,
            "act": 746,
            "pt": 747,
            "Ġfirst": 748,
            "uch": 749,
            "Ġmean": 750,
            "ren": 751,
            "Ġday": 752,
            "Ġhand": 753,
            "pl": 754,
            "self": 755,
            "We": 756,
            "ise": 757,
            "Ġshould": 758,
            "Ġcall": 759,
            "per": 760,
            "ress": 761,
            "av": 762,
            "Ġpart": 763,
            "ull": 764,
            "Ġafter": 765,
            "ang": 766,
            "Ġfl": 767,
            "ci": 768,
            "his": 769,
            "Ġun": 770,
            "so": 771,
            "uh": 772,
            "ys": 773,
            "ather": 774,
            "ord": 775,
            "nder": 776,
            ",\\": 777,
            "we": 778,
            "Ġbet": 779,
            "mer": 780,
            "ĠSt": 781,
            "Ġcar": 782,
            "Ġour": 783,
            "Ġthr": 784,
            "Ġte": 785,
            "augh": 786,
            "wn": 787,
            "Ġcha": 788,
            "fore": 789,
            "les": 790,
            "Ġevery": 791,
            "ff": 792,
            "...": 793,
            "Ġpo": 794,
            "Ġpre": 795,
            "Ġbecause": 796,
            "Ġmuch": 797,
            "able": 798,
            "int": 799,
            "Ġdidn": 800,
            "Ġonly": 801,
            "ady": 802,
            "That": 803,
            "be": 804,
            "ile": 805,
            "ach": 806,
            "Ġchi": 807,
            "ng": 808,
            "Yes": 809,
            "Ġreally": 810,
            "anna": 811,
            "Ġthese": 812,
            "Ġch": 813,
            "*G": 814,
            "ance": 815,
            "Ġgu": 816,
            "AN": 817,
            "thing": 818,
            "Ġyear": 819,
            "ool": 820,
            "iz": 821,
            "Ġsomething": 822,
            "Well": 823,
            "But": 824,
            "irl": 825,
            "ne": 826,
            "ĠMr": 827,
            "Ġsec": 828,
            "ouse": 829,
            "ark": 830,
            "oc": 831,
            "Ġdis": 832,
            "Ġmade": 833,
            "ting": 834,
            "Ġhapp": 835,
            "day": 836,
            "Ġwhy": 837,
            "ob": 838,
            "og": 839,
            "Ġwr": 840,
            "ru": 841,
            "hy": 842,
            "Ġwanna": 843,
            "ock": 844,
            "ict": 845,
            "cc": 846,
            "oh": 847,
            "ĠV": 848,
            "ied": 849,
            "Ġchild": 850,
            "ated": 851,
            "Ġlong": 852,
            "Ġtalk": 853,
            "Ġad": 854,
            "Ġsm": 855,
            "ew": 856,
            "old": 857,
            "Ġbig": 858,
            "ub": 859,
            "ip": 860,
            "ory": 861,
            "Ġke": 862,
            "Ġbefore": 863,
            "Ġmay": 864,
            "cl": 865,
            "Ġthree": 866,
            "Ġrem": 867,
            "Ġbab": 868,
            "hes": 869,
            "Ġunder": 870,
            "Ġaway": 871,
            "ions": 872,
            "Ġsc": 873,
            "Ġthose": 874,
            "Ġgirl": 875,
            "'d": 876,
            "IS": 877,
            "Ġim": 878,
            "Ġact": 879,
            "oll": 880,
            "Ġcomp": 881,
            "ward": 882,
            "ving": 883,
            "ence": 884,
            "Ġdoing": 885,
            "Ġum": 886,
            "Ġhel": 887,
            "Ġturn": 888,
            ".]\\": 889,
            "RO": 890,
            "Ġwent": 891,
            "ĠShe": 892,
            "Ġper": 893,
            "*M": 894,
            "Ġnever": 895,
            "man": 896,
            "Ġask": 897,
            "ĠY": 898,
            "ens": 899,
            "Ġcr": 900,
            "gg": 901,
            "Ġalso": 902,
            "Ġapp": 903,
            "âĢĿ\\": 904,
            "Ġthought": 905,
            "Ġold": 906,
            "ful": 907,
            "ĠIn": 908,
            "ny": 909,
            "Ġhome": 910,
            "ix": 911,
            "iend": 912,
            "ild": 913,
            "ons": 914,
            "oot": 915,
            "ling": 916,
            "hen": 917,
            "ï¿": 918,
            "Ġthings": 919,
            "laugh": 920,
            "Ġcame": 921,
            "Ġbook": 922,
            "rd": 923,
            "ï¿½": 924,
            "Ġple": 925,
            "Ġeven": 926,
            "Ġnew": 927,
            "Ġanother": 928,
            "ious": 929,
            "ks": 930,
            "Ġgive": 931,
            "So": 932,
            "ans": 933,
            "pe": 934,
            "Ġbit": 935,
            "ors": 936,
            "Ġfind": 937,
            "Ġhead": 938,
            "Ġgreat": 939,
            "Ġcont": 940,
            "Ġtry": 941,
            "Ġmust": 942,
            "Ġeat": 943,
            "ath": 944,
            "Ġdone": 945,
            "Ġlove": 946,
            "ved": 947,
            "Ġstart": 948,
            "Ġsl": 949,
            "Ġhelp": 950,
            "Ġlea": 951,
            "Ġthrough": 952,
            "Ġboy": 953,
            "oy": 954,
            "MA": 955,
            "ily": 956,
            "get": 957,
            "Ġhouse": 958,
            "ĠCh": 959,
            "here": 960,
            "ings": 961,
            "Ġmom": 962,
            "Ġbu": 963,
            "Ġshow": 964,
            "ign": 965,
            "aking": 966,
            "Ġstill": 967,
            "Ġbaby": 968,
            "ait": 969,
            "Ġlast": 970,
            "ried": 971,
            "ĠFr": 972,
            "igh": 973,
            "%add": 974,
            "Ġres": 975,
            "TE": 976,
            "Ġmany": 977,
            "ave": 978,
            "Ġname": 979,
            "air": 980,
            "ww": 981,
            "Ġwon": 982,
            "HE": 983,
            "Ġlot": 984,
            "ail": 985,
            "akes": 986,
            "*GMA": 987,
            "Ġche": 988,
            "Ġmight": 989,
            "ms": 990,
            "tain": 991,
            "xt": 992,
            "ars": 993,
            "ened": 994,
            "Ġser": 995,
            "ody": 996,
            "Ġchan": 997,
            "ĠUn": 998,
            "aw": 999,
            "Ġop": 1000,
            "als": 1001,
            "âĻ": 1002,
            "hm": 1003,
            "ves": 1004,
            "Ġnight": 1005,
            "Ġmin": 1006,
            "ates": 1007,
            "ually": 1008,
            "ah": 1009,
            "Ġfound": 1010,
            "ummy": 1011,
            "Ġkind": 1012,
            "land": 1013,
            "In": 1014,
            "up": 1015,
            "Ġmother": 1016,
            "iver": 1017,
            "med": 1018,
            "Ġbel": 1019,
            "Ġdif": 1020,
            "laughs": 1021,
            "ĠâĢľ": 1022,
            "âĻª": 1023,
            "*B": 1024,
            "Ġsit": 1025,
            "ult": 1026,
            "She": 1027,
            "Ġcount": 1028,
            "Ġcomm": 1029,
            "anc": 1030,
            "port": 1031,
            "chool": 1032,
            "Ġmov": 1033,
            "Ġcare": 1034,
            "side": 1035,
            "Ġah": 1036,
            "ater": 1037,
            "Ġrec": 1038,
            "oney": 1039,
            "Ġfeel": 1040,
            "Ġmost": 1041,
            "Ġfour": 1042,
            "Ġbot": 1043,
            "Ġown": 1044,
            "Ġcalled": 1045,
            "*S": 1046,
            "body": 1047,
            ":\\": 1048,
            "oss": 1049,
            "Ġfriend": 1050,
            "They": 1051,
            "Ġbetter": 1052,
            "rent": 1053,
            "ĠYou": 1054,
            "Ġused": 1055,
            "ember": 1056,
            "und": 1057,
            "Ġel": 1058,
            "Ġlooks": 1059,
            "âĢĻs": 1060,
            "This": 1061,
            "Ġaround": 1062,
            "Ġsuch": 1063,
            "ee": 1064,
            "Ġkeep": 1065,
            "Ġerm": 1066,
            "Ġsure": 1067,
            "ĠThey": 1068,
            "Ġend": 1069,
            "ever": 1070,
            "Ġisn": 1071,
            "*BRO": 1072,
            "Ġyears": 1073,
            ".âĢĿ\\": 1074,
            "Ġdes": 1075,
            "Ġlife": 1076,
            "imes": 1077,
            "Ġits": 1078,
            "Ġbeing": 1079,
            "Ġcour": 1080,
            "orry": 1081,
            "Ġplace": 1082,
            "Ġstr": 1083,
            "addy": 1084,
            "Ġwater": 1085,
            "ple": 1086,
            "Ġey": 1087,
            "Ġanything": 1088,
            "Ġnice": 1089,
            "Ġgl": 1090,
            "*MCH": 1091,
            "uc": 1092,
            "There": 1093,
            "inn": 1094,
            "rest": 1095,
            "ical": 1096,
            "Ġball": 1097,
            "ways": 1098,
            "ited": 1099,
            "Ġmat": 1100,
            "ince": 1101,
            "Ġsame": 1102,
            "oun": 1103,
            "the": 1104,
            "ank": 1105,
            "ute": 1106,
            "[MOT": 1107,
            "Ġstop": 1108,
            "Ġwhile": 1109,
            "Ġshall": 1110,
            "Ġdoesn": 1111,
            "Ġsupp": 1112,
            "Ġdr": 1113,
            "orm": 1114,
            "?\\\"\\": 1115,
            "*N": 1116,
            "Ġmon": 1117,
            "ope": 1118,
            "Ġwait": 1119,
            "Ġfin": 1120,
            "ĠBr": 1121,
            "ph": 1122,
            "Ġplease": 1123,
            "ican": 1124,
            "Ġcle": 1125,
            "Ġroom": 1126,
            "led": 1127,
            "ations": 1128,
            "ĠAnd": 1129,
            "row": 1130,
            "Ġrun": 1131,
            "ident": 1132,
            "Ġpol": 1133,
            "Ġnext": 1134,
            "Ġtold": 1135,
            "How": 1136,
            "Ġschool": 1137,
            "Ġbre": 1138,
            "Ġfar": 1139,
            "Ġsw": 1140,
            "ction": 1141,
            "Ġatt": 1142,
            "Ġelse": 1143,
            "pr": 1144,
            "ss": 1145,
            "Ġset": 1146,
            "outh": 1147,
            "ition": 1148,
            "ta": 1149,
            "*NAN": 1150,
            "*SIS": 1151,
            "If": 1152,
            "bab": 1153,
            "ont": 1154,
            "Ġmhm": 1155,
            "Ġword": 1156,
            "ung": 1157,
            "Ġwee": 1158,
            "Ġleft": 1159,
            "arly": 1160,
            "Ġalways": 1161,
            "Ġread": 1162,
            "Ġdist": 1163,
            "Ġhard": 1164,
            "ho": 1165,
            "Ġpoint": 1166,
            "ĠMar": 1167,
            "Ġspe": 1168,
            "Ġdiffe": 1169,
            "Ġpres": 1170,
            "mber": 1171,
            "aught": 1172,
            "!\\\"": 1173,
            "Ġbeg": 1174,
            "Ġhold": 1175,
            "ĠMummy": 1176,
            "Ġfun": 1177,
            "ness": 1178,
            "Ġbus": 1179,
            "Ġthank": 1180,
            "ream": 1181,
            "ĠAmer": 1182,
            "Ġfather": 1183,
            "Ġface": 1184,
            "Ġgone": 1185,
            "Ġacc": 1186,
            "Ġmen": 1187,
            "Ġunt": 1188,
            "âĢĵ": 1189,
            "ohn": 1190,
            "right": 1191,
            "Ġbec": 1192,
            "ĠAl": 1193,
            "Ġcol": 1194,
            "Ġmoney": 1195,
            "ows": 1196,
            "Ġtook": 1197,
            "Ġsaw": 1198,
            ",âĢĿ": 1199,
            "Ġquite": 1200,
            "Do": 1201,
            "Ġac": 1202,
            "vel": 1203,
            "Ġ.\\": 1204,
            "Why": 1205,
            "Ġwalk": 1206,
            "Ġdra": 1207,
            "mp": 1208,
            "ĠBut": 1209,
            "Ġfive": 1210,
            "ug": 1211,
            "ĠCha": 1212,
            "leep": 1213,
            "Ġgoes": 1214,
            "Ġuse": 1215,
            "Ġfam": 1216,
            "ĠCHI": 1217,
            "Ġopen": 1218,
            "Ġhm": 1219,
            "pect": 1220,
            "Ġob": 1221,
            "ton": 1222,
            "eb": 1223,
            "ES": 1224,
            "Ġind": 1225,
            "Ġbed": 1226,
            "ished": 1227,
            "Ġnum": 1228,
            "Ġstand": 1229,
            "ane": 1230,
            "Ġsorry": 1231,
            "----": 1232,
            "Ġenough": 1233,
            "me": 1234,
            "Ġbox": 1235,
            "Ġsur": 1236,
            "ins": 1237,
            "tern": 1238,
            "Ġsays": 1239,
            "Ġthough": 1240,
            "ters": 1241,
            "Ġele": 1242,
            "erson": 1243,
            "Ġuntil": 1244,
            "Ġhear": 1245,
            "gr": 1246,
            "dy": 1247,
            "ts": 1248,
            "oon": 1249,
            "Ġhuh": 1250,
            "Ġwatch": 1251,
            "Ġcoming": 1252,
            "ib": 1253,
            "Ġcourse": 1254,
            "*K": 1255,
            "Ġreal": 1256,
            "Ġdoor": 1257,
            "Ġstay": 1258,
            "uff": 1259,
            "Ġever": 1260,
            "Ġcat": 1261,
            "ump": 1262,
            "Ġreg": 1263,
            "az": 1264,
            "ush": 1265,
            "amp": 1266,
            "Ġwar": 1267,
            "OU": 1268,
            "Ġret": 1269,
            "Ġtoday": 1270,
            "Ġside": 1271,
            "ject": 1272,
            "Ġeyes": 1273,
            "Now": 1274,
            "vent": 1275,
            "Ġpass": 1276,
            "orning": 1277,
            "ces": 1278,
            "Ġknown": 1279,
            "Ġlight": 1280,
            "Ġwom": 1281,
            "Ġred": 1282,
            "ike": 1283,
            "ower": 1284,
            "Ġpick": 1285,
            "Don": 1286,
            "Ġfew": 1287,
            "eak": 1288,
            "TEA": 1289,
            "ason": 1290,
            "Ġnothing": 1291,
            "Ġbest": 1292,
            "Ġair": 1293,
            "Ġsing": 1294,
            "ational": 1295,
            "LL": 1296,
            "Ġasked": 1297,
            "ning": 1298,
            "ible": 1299,
            "*TEA": 1300,
            "Ġter": 1301,
            "Ġyoung": 1302,
            "rew": 1303,
            "Ġsix": 1304,
            "Ġbelie": 1305,
            "ired": 1306,
            "ĠJohn": 1307,
            "Ġyet": 1308,
            "Ġseen": 1309,
            "ĠMOT": 1310,
            "ial": 1311,
            "ird": 1312,
            "Ġchildren": 1313,
            "[CHI": 1314,
            "Ġph": 1315,
            "ames": 1316,
            "fta": 1317,
            "Ġ_": 1318,
            "Ġhafta": 1319,
            "Ġpap": 1320,
            "ger": 1321,
            "Ġremember": 1322,
            "Ġdifferent": 1323,
            "Ġupon": 1324,
            "Ġfall": 1325,
            "Ġfell": 1326,
            "orth": 1327,
            "Ġhur": 1328,
            "ier": 1329,
            "Ġmorning": 1330,
            "ross": 1331,
            "Ġsecond": 1332,
            "ĠAr": 1333,
            "ased": 1334,
            "Ġleave": 1335,
            "Ġchar": 1336,
            "Ġlist": 1337,
            "Ġround": 1338,
            "uring": 1339,
            "fect": 1340,
            "Ġdear": 1341,
            "Ġent": 1342,
            "Ġinte": 1343,
            "Ġhands": 1344,
            "Ġmind": 1345,
            "Ġlooking": 1346,
            "ween": 1347,
            "mb": 1348,
            "ret": 1349,
            "gether": 1350,
            "RA": 1351,
            "Ġtogether": 1352,
            "Ġmar": 1353,
            "Okay": 1354,
            "ĠAn": 1355,
            "ING": 1356,
            "Ġgetting": 1357,
            "Ġkill": 1358,
            "oor": 1359,
            "ĠTHE": 1360,
            "Ġrel": 1361,
            "ĠMiss": 1362,
            ")\\": 1363,
            "tle": 1364,
            "ures": 1365,
            "cle": 1366,
            "Ġmil": 1367,
            "ĠThis": 1368,
            "Ġbro": 1369,
            "ash": 1370,
            "by": 1371,
            "ines": 1372,
            "Ġsound": 1373,
            "ister": 1374,
            "ĠMrs": 1375,
            "Ġsmall": 1376,
            "ollow": 1377,
            "Ġhimself": 1378,
            "Come": 1379,
            "Ġrest": 1380,
            "ok": 1381,
            "Ġtri": 1382,
            "Ġonce": 1383,
            "huh": 1384,
            "ĠNew": 1385,
            "ĠWhat": 1386,
            "ER": 1387,
            "ork": 1388,
            "ĠAs": 1389,
            "Ġbetween": 1390,
            "Ġpret": 1391,
            "cha": 1392,
            "Ġboth": 1393,
            "Ġheart": 1394,
            "Ġsil": 1395,
            "Ġsleep": 1396,
            "ener": 1397,
            "omb": 1398,
            "AD": 1399,
            "its": 1400,
            "ma": 1401,
            "Ġanim": 1402,
            "Ġfoot": 1403,
            "Ġpie": 1404,
            "*FCH": 1405,
            "most": 1406,
            "Ġbad": 1407,
            "less": 1408,
            "Ġeach": 1409,
            "Ġhigh": 1410,
            "Ġhaving": 1411,
            "une": 1412,
            "ote": 1413,
            "?\\\"": 1414,
            "Ġheard": 1415,
            "ctor": 1416,
            "Ġtable": 1417,
            "ange": 1418,
            "ating": 1419,
            "Ġcap": 1420,
            "Er": 1421,
            "Ġlater": 1422,
            "Ġhalf": 1423,
            "Ġca": 1424,
            "Ġwithout": 1425,
            "Let": 1426,
            "ball": 1427,
            "reen": 1428,
            "Than": 1429,
            "Ġready": 1430,
            "ĠAmerican": 1431,
            "Ġmm": 1432,
            "der": 1433,
            "ets": 1434,
            "Ġmaking": 1435,
            "ĠGr": 1436,
            "Ġwind": 1437,
            "Ġworld": 1438,
            "Ġnoise": 1439,
            "ered": 1440,
            "Is": 1441,
            "ĠInd": 1442,
            "Ġpop": 1443,
            "oice": 1444,
            "Ġsoon": 1445,
            "Ġalright": 1446,
            "Ġtop": 1447,
            "ten": 1448,
            "Ġcons": 1449,
            "ĠMom": 1450,
            "Ġchair": 1451,
            "âĢĻt": 1452,
            "ents": 1453,
            "Ġsort": 1454,
            "Mm": 1455,
            "Ġdec": 1456,
            "St": 1457,
            "Ġpretty": 1458,
            "Ġknew": 1459,
            "stand": 1460,
            "Ġperson": 1461,
            "any": 1462,
            "Ġinst": 1463,
            "rist": 1464,
            "Ġagainst": 1465,
            "ON": 1466,
            "ama": 1467,
            "ocal": 1468,
            "Ġdied": 1469,
            "ises": 1470,
            "Ġmove": 1471,
            "Ġlooked": 1472,
            "Ġi": 1473,
            "Ġdire": 1474,
            "ĠDe": 1475,
            "ged": 1476,
            "Ġhappened": 1477,
            "Ġmaybe": 1478,
            "oe": 1479,
            "Ġsk": 1480,
            "ĠEd": 1481,
            "Ġwanted": 1482,
            "All": 1483,
            "Ġtalking": 1484,
            "ĠYeah": 1485,
            "Ġeverything": 1486,
            "bo": 1487,
            "Ġhaven": 1488,
            "Ġmus": 1489,
            "cept": 1490,
            "ife": 1491,
            "ted": 1492,
            "Ġhey": 1493,
            "ĠWe": 1494,
            "ision": 1495,
            "ched": 1496,
            "Ġfollow": 1497,
            "osed": 1498,
            "\\\",": 1499,
            "Ġblack": 1500,
            "iet": 1501,
            "pped": 1502,
            "Ġmiss": 1503,
            "www": 1504,
            "ief": 1505,
            "Ġnumber": 1506,
            "Ġdog": 1507,
            "ertain": 1508,
            "ĠTh": 1509,
            "br": 1510,
            "My": 1511,
            "ĠThere": 1512,
            "but": 1513,
            "Ġï¿½": 1514,
            "Ġsn": 1515,
            "part": 1516,
            "Ġmeet": 1517,
            "uss": 1518,
            "Ġans": 1519,
            "Ġlive": 1520,
            "Hey": 1521,
            "Ġhell": 1522,
            "Ġfire": 1523,
            "ĠDaddy": 1524,
            "ĠUnited": 1525,
            "Ġdri": 1526,
            "Ġhour": 1527,
            "den": 1528,
            "Ġbring": 1529,
            "),": 1530,
            "ale": 1531,
            "OR": 1532,
            "ither": 1533,
            "Ġactually": 1534,
            "Ġeight": 1535,
            "Ġinterest": 1536,
            "ern": 1537,
            "Ġgave": 1538,
            "key": 1539,
            "tend": 1540,
            "wards": 1541,
            "cial": 1542,
            "Ġborn": 1543,
            "Ġlar": 1544,
            "ubl": 1545,
            "Ġass": 1546,
            "ches": 1547,
            "ĠNo": 1548,
            "Ġbreak": 1549,
            "Ġcut": 1550,
            "ĠGer": 1551,
            "Ġdays": 1552,
            "Ġmoment": 1553,
            "Not": 1554,
            "Ġtown": 1555,
            "Ġwond": 1556,
            "Ġcur": 1557,
            "Ġfamily": 1558,
            "Ġgame": 1559,
            "clud": 1560,
            "Ġadd": 1561,
            "ner": 1562,
            "io": 1563,
            "Ġquest": 1564,
            "Ġfood": 1565,
            "Ġsub": 1566,
            "bably": 1567,
            "ual": 1568,
            "iness": 1569,
            "ĠEng": 1570,
            "ised": 1571,
            "Ġbelieve": 1572,
            "Ġcity": 1573,
            "Ġaw": 1574,
            "Ġinv": 1575,
            "Ġtrain": 1576,
            "Ġdar": 1577,
            "Ġid": 1578,
            "Ġtrying": 1579,
            "ĠOh": 1580,
            "Ġhor": 1581,
            "sel": 1582,
            "ced": 1583,
            "aut": 1584,
            "ax": 1585,
            "sh": 1586,
            "Ġpaper": 1587,
            "Ġsince": 1588,
            "Ġmet": 1589,
            "Ġ,": 1590,
            "Ġhat": 1591,
            "Ġstory": 1592,
            "Ġalong": 1593,
            "Ġmatter": 1594,
            "Ġwhole": 1595,
            "Ġboys": 1596,
            "ĠGod": 1597,
            "app": 1598,
            "ready": 1599,
            "Be": 1600,
            "Ġfact": 1601,
            "Ġkid": 1602,
            "Ġeas": 1603,
            "ully": 1604,
            "icha": 1605,
            "Ġalmost": 1606,
            "Ġref": 1607,
            "Ġpict": 1608,
            "Ġdel": 1609,
            "Ġwasn": 1610,
            "ye": 1611,
            "ield": 1612,
            "ony": 1613,
            "Ġdraw": 1614,
            "Ġten": 1615,
            "Ġsqu": 1616,
            "Ġinter": 1617,
            "ĠBe": 1618,
            "oke": 1619,
            "enty": 1620,
            "uth": 1621,
            "Ġclose": 1622,
            "ative": 1623,
            "hip": 1624,
            "vers": 1625,
            "Ġhot": 1626,
            "ics": 1627,
            "Ġstick": 1628,
            "arl": 1629,
            "unt": 1630,
            "Ġteam": 1631,
            "orrow": 1632,
            "Ġunderstand": 1633,
            "ular": 1634,
            "vern": 1635,
            "*D": 1636,
            "*GRA": 1637,
            "ex": 1638,
            "Ġdrink": 1639,
            "When": 1640,
            "ined": 1641,
            "ec": 1642,
            "ants": 1643,
            "Ġcomes": 1644,
            "Ġdoll": 1645,
            "aj": 1646,
            "ped": 1647,
            "Ġjob": 1648,
            "Ġstarted": 1649,
            "Then": 1650,
            "elt": 1651,
            "Ġsaying": 1652,
            "to": 1653,
            "Ġswe": 1654,
            "Ġalready": 1655,
            "Just": 1656,
            "Ġtra": 1657,
            "Ġspeak": 1658,
            "ery": 1659,
            "Ġpull": 1660,
            "Ġreturn": 1661,
            "ĠStates": 1662,
            "Ġguess": 1663,
            "Ġstuff": 1664,
            "*U": 1665,
            "Ġdarling": 1666,
            "ĠHar": 1667,
            "Ġblue": 1668,
            "Ġrep": 1669,
            "aken": 1670,
            "Ġexc": 1671,
            "fr": 1672,
            "aster": 1673,
            "Ġnear": 1674,
            "Ġlaugh": 1675,
            "ĠCl": 1676,
            "Ġwouldn": 1677,
            "On": 1678,
            "ities": 1679,
            "ouch": 1680,
            "Ġposs": 1681,
            "Ġwonder": 1682,
            "Ġplaying": 1683,
            "rict": 1684,
            "ives": 1685,
            "ĠIs": 1686,
            "Ġprobably": 1687,
            "where": 1688,
            "ina": 1689,
            "ries": 1690,
            "Ġdro": 1691,
            "Ġimp": 1692,
            "Ġbuild": 1693,
            "Ġsign": 1694,
            "Ġbrother": 1695,
            "Ġland": 1696,
            "Ġsent": 1697,
            "Ġtimes": 1698,
            "Ġhair": 1699,
            "Ã©": 1700,
            "Ġwrong": 1701,
            "Ġwoman": 1702,
            "Ġplayed": 1703,
            "Ġdisc": 1704,
            "âĢĺ": 1705,
            "oup": 1706,
            "Ġfeet": 1707,
            "ĠChrist": 1708,
            "kes": 1709,
            "ues": 1710,
            "Ġinc": 1711,
            "Ġhope": 1712,
            "ĠZ": 1713,
            "Ġproble": 1714,
            "oud": 1715,
            "Ġson": 1716,
            "Ġpur": 1717,
            "Ġminute": 1718,
            "Ġcent": 1719,
            "Ġinf": 1720,
            "ĠSte": 1721,
            "Are": 1722,
            "Ġwhite": 1723,
            "iew": 1724,
            "Ġvoice": 1725,
            "Ġfriends": 1726,
            "Ġpay": 1727,
            "Ġgi": 1728,
            "enn": 1729,
            "Ġsy": 1730,
            "âĻª\\": 1731,
            "Who": 1732,
            "Ġinclud": 1733,
            "ific": 1734,
            "ï¿½ï¿½": 1735,
            "Where": 1736,
            "Ġduring": 1737,
            "ĠUh": 1738,
            "Ġmonth": 1739,
            "Thank": 1740,
            "EN": 1741,
            "Ġfloor": 1742,
            "Ġcountry": 1743,
            "ĠJap": 1744,
            "ying": 1745,
            "ĠSo": 1746,
            "itting": 1747,
            "Ġfull": 1748,
            "Ġmeans": 1749,
            "ital": 1750,
            "Ġste": 1751,
            "Ġplan": 1752,
            "ring": 1753,
            "ently": 1754,
            "*KF": 1755,
            "Ġpoor": 1756,
            "Ġsim": 1757,
            "ense": 1758,
            "haps": 1759,
            "ĠMay": 1760,
            "oes": 1761,
            "Ġidea": 1762,
            "fter": 1763,
            "Ġlost": 1764,
            "undred": 1765,
            "ats": 1766,
            "Ġgotta": 1767,
            "Ġyell": 1768,
            "aces": 1769,
            "*J": 1770,
            "no": 1771,
            ".\\\"": 1772,
            "airs": 1773,
            "-s": 1774,
            "Ġbrought": 1775,
            "Ġquick": 1776,
            "ivers": 1777,
            "Ġmovie": 1778,
            "Ġbecame": 1779,
            "Ġbeaut": 1780,
            "Ġdeath": 1781,
            "Ġleg": 1782,
            "child": 1783,
            "Ġstud": 1784,
            "aid": 1785,
            "Ġhappy": 1786,
            "Ġstate": 1787,
            "Ġyourself": 1788,
            "Ġseemed": 1789,
            "ones": 1790,
            "Ġones": 1791,
            "ĠCount": 1792,
            "ize": 1793,
            "Ġmine": 1794,
            "Ġrather": 1795,
            ").": 1796,
            "ster": 1797,
            "ĠAd": 1798,
            "ĠFl": 1799,
            "ared": 1800,
            "oint": 1801,
            "\\\".": 1802,
            "ages": 1803,
            "Ġgrand": 1804,
            "Look": 1805,
            "Ġform": 1806,
            "Ġexp": 1807,
            "Ġhundred": 1808,
            "Ġcoll": 1809,
            "Right": 1810,
            "ley": 1811,
            "Ġconf": 1812,
            "Ġpain": 1813,
            "RE": 1814,
            "Ġshort": 1815,
            "cted": 1816,
            "inner": 1817,
            "eth": 1818,
            "Ġcertain": 1819,
            "Ġgirls": 1820,
            "Ġfine": 1821,
            "Ġgreen": 1822,
            "enc": 1823,
            "ĠâĢĵ": 1824,
            "Ġsir": 1825,
            "olog": 1826,
            "ald": 1827,
            "Ġturned": 1828,
            "Ġcontin": 1829,
            "room": 1830,
            "wer": 1831,
            "Ġage": 1832,
            "Ġweek": 1833,
            "Ġmag": 1834,
            "Ġmusic": 1835,
            "Ġbegan": 1836,
            "Ġbeh": 1837,
            "Did": 1838,
            "ape": 1839,
            "ene": 1840,
            "bles": 1841,
            "ica": 1842,
            "Ġexpl": 1843,
            "Ġstra": 1844,
            "eter": 1845,
            "Ġwords": 1846,
            "cess": 1847,
            "Ġgener": 1848,
            "ipp": 1849,
            "ments": 1850,
            "ober": 1851,
            "Ġdaddy": 1852,
            "Ġlead": 1853,
            "Ġmouth": 1854,
            "Ġfront": 1855,
            "Good": 1856,
            "Ġmakes": 1857,
            "ese": 1858,
            "Ġaren": 1859,
            "ided": 1860,
            "Ġmyself": 1861,
            "ention": 1862,
            "son": 1863,
            "Ġoutside": 1864,
            "Ġtaken": 1865,
            "]?\\": 1866,
            "Ġfav": 1867,
            "Ġprod": 1868,
            "utes": 1869,
            "Ġsat": 1870,
            "Ġprom": 1871,
            "ĠBen": 1872,
            "ask": 1873,
            "Ġlady": 1874,
            "ison": 1875,
            "Ġparty": 1876,
            "ured": 1877,
            "Ġdat": 1878,
            "Ġable": 1879,
            "Ġcolor": 1880,
            "Ġarea": 1881,
            "ressed": 1882,
            "not": 1883,
            "sing": 1884,
            "Mr": 1885,
            "Ġwants": 1886,
            "aser": 1887,
            "RS": 1888,
            "Ġfight": 1889,
            "Ġcry": 1890,
            "Ġbehind": 1891,
            "omba": 1892,
            "Ġhappen": 1893,
            "ik": 1894,
            "Ġdead": 1895,
            "Ġtele": 1896,
            "ford": 1897,
            "rog": 1898,
            "ĠSp": 1899,
            "irty": 1900,
            "Can": 1901,
            "Ġsong": 1902,
            "ĠTom": 1903,
            "ized": 1904,
            "ury": 1905,
            "used": 1906,
            "Ġprov": 1907,
            "Ġtre": 1908,
            "olly": 1909,
            "Ġcir": 1910,
            "Ġwrite": 1911,
            "ral": 1912,
            "Ġes": 1913,
            "ĠHow": 1914,
            "ĠCounty": 1915,
            "selves": 1916,
            "Ġtaking": 1917,
            "ruary": 1918,
            "Ġimport": 1919,
            "ebruary": 1920,
            "iful": 1921,
            "ole": 1922,
            "Ġfunny": 1923,
            "Ġless": 1924,
            "fully": 1925,
            "Ġpat": 1926,
            "ĠIN": 1927,
            "Ġfelt": 1928,
            "Ġmain": 1929,
            "Th": 1930,
            "iam": 1931,
            "Ġgiven": 1932,
            "Ġbusiness": 1933,
            "Ġcra": 1934,
            "lish": 1935,
            "ĠThat": 1936,
            "*DAD": 1937,
            "ouble": 1938,
            "Ġtoys": 1939,
            "Ġoffic": 1940,
            "Ġcase": 1941,
            "Ġed": 1942,
            "Ġoften": 1943,
            "Ġrecord": 1944,
            "Ġline": 1945,
            "Ġbear": 1946,
            "Ġanimals": 1947,
            "Ġext": 1948,
            "head": 1949,
            "ider": 1950,
            "Ġminutes": 1951,
            "irth": 1952,
            "ĠAt": 1953,
            "Ġmommy": 1954,
            "ĠMommy": 1955,
            "ĠHis": 1956,
            "Ġguys": 1957,
            "Ġlear": 1958,
            "[child": 1959,
            "Ġserv": 1960,
            "Ġbar": 1961,
            "Ġdeal": 1962,
            "ĠRe": 1963,
            "ĠJapan": 1964,
            "Ġya": 1965,
            "anger": 1966,
            "Ġquestion": 1967,
            "Ġsometimes": 1968,
            "Ġchange": 1969,
            "ĠCom": 1970,
            "Ġlate": 1971,
            "ĠDav": 1972,
            "essie": 1973,
            "ĠFebruary": 1974,
            "lease": 1975,
            "anor": 1976,
            "Ġmess": 1977,
            "ert": 1978,
            "Ġocc": 1979,
            "ĠFraser": 1980,
            "Ġtwenty": 1981,
            "Ġduck": 1982,
            "Ġtom": 1983,
            "Ġpresent": 1984,
            "rence": 1985,
            "Ġeither": 1986,
            "Ġhello": 1987,
            "Ġpicture": 1988,
            "reet": 1989,
            "Ġcold": 1990,
            "gin": 1991,
            "ander": 1992,
            "LD": 1993,
            "ada": 1994,
            "As": 1995,
            "Ġtill": 1996,
            "Ġmed": 1997,
            "ained": 1998,
            "Ġseven": 1999,
            "Ġev": 2000,
            "Ġleast": 2001,
            "Ġbase": 2002,
            "ara": 2003,
            "Ġlisten": 2004,
            "ĠBart": 2005,
            "Ġsomeone": 2006,
            "Ġcouldn": 2007,
            "-huh": 2008,
            "Ġpiece": 2009,
            "-l": 2010,
            "ffe": 2011,
            "anu": 2012,
            "ots": 2013,
            "ĠThen": 2014,
            "Ġyellow": 2015,
            "Ġrock": 2016,
            "hil": 2017,
            "ides": 2018,
            "ĠEle": 2019,
            "Ġsweet": 2020,
            "gie": 2021,
            "gan": 2022,
            "ĠQ": 2023,
            "amed": 2024,
            "illy": 2025,
            "Ġvis": 2026,
            "For": 2027,
            "Ġhum": 2028,
            "Ġclot": 2029,
            "ey": 2030,
            "ming": 2031,
            "oub": 2032,
            "Ġhi": 2033,
            "ards": 2034,
            "Ġem": 2035,
            "Ġboat": 2036,
            "ĠCar": 2037,
            "ĠYork": 2038,
            "ze": 2039,
            "owing": 2040,
            "Ã¡": 2041,
            "IT": 2042,
            "aughter": 2043,
            "ric": 2044,
            "uly": 2045,
            "ality": 2046,
            "Ġhorse": 2047,
            "Ġcook": 2048,
            "arent": 2049,
            "Al": 2050,
            "har": 2051,
            "eng": 2052,
            "Ġins": 2053,
            "Ġfig": 2054,
            "Ġhurt": 2055,
            "fort": 2056,
            "ains": 2057,
            "ians": 2058,
            "unch": 2059,
            "Ġlarge": 2060,
            "Ġpubl": 2061,
            "Ġroad": 2062,
            "LE": 2063,
            "Ġguy": 2064,
            "Ġfif": 2065,
            "iously": 2066,
            "Ġstrong": 2067,
            "Ġpolit": 2068,
            "born": 2069,
            "Ġpri": 2070,
            "Ġdef": 2071,
            "Ġago": 2072,
            "idge": 2073,
            "Ġbirth": 2074,
            "Ġinside": 2075,
            "unk": 2076,
            "een": 2077,
            "ham": 2078,
            "Ġalone": 2079,
            "Ġwish": 2080,
            "Ġwife": 2081,
            "Ġbeautiful": 2082,
            "ĠâĻª\\": 2083,
            "rap": 2084,
            "Ġgovern": 2085,
            "AS": 2086,
            "Ġmid": 2087,
            "Ġrepl": 2088,
            "Ġbody": 2089,
            "-d": 2090,
            "Ġherself": 2091,
            "Ġothers": 2092,
            "ution": 2093,
            "Ġtrue": 2094,
            "Ġeng": 2095,
            "zz": 2096,
            "ĠChar": 2097,
            "Ġdark": 2098,
            "ĠAll": 2099,
            "ned": 2100,
            "ead": 2101,
            "ĠWill": 2102,
            "Go": 2103,
            "read": 2104,
            "ounc": 2105,
            "dle": 2106,
            "iting": 2107,
            "Ġdinner": 2108,
            "Ġbooks": 2109,
            "II": 2110,
            "for": 2111,
            "Ġimportant": 2112,
            "Ġground": 2113,
            "Ġreason": 2114,
            "aul": 2115,
            "Ġfore": 2116,
            "Ġpower": 2117,
            "May": 2118,
            "Ġfish": 2119,
            "ĠYOU": 2120,
            "Ġfing": 2121,
            "Ġletter": 2122,
            "Ġcheck": 2123,
            "aim": 2124,
            "ĠOn": 2125,
            "ety": 2126,
            "ĠPr": 2127,
            "[c": 2128,
            "aur": 2129,
            "eor": 2130,
            "atur": 2131,
            "ĠFor": 2132,
            "Ġtree": 2133,
            "lex": 2134,
            "Ġfair": 2135,
            "Ġopp": 2136,
            "let": 2137,
            "Ġfinished": 2138,
            "Ġgets": 2139,
            "Ġblock": 2140,
            "icip": 2141,
            "Ġdistrict": 2142,
            "RI": 2143,
            "ĠYes": 2144,
            "Ġclean": 2145,
            "Ġmark": 2146,
            "At": 2147,
            "Ġmill": 2148,
            "Ġworking": 2149,
            "ept": 2150,
            "Ġwear": 2151,
            "ĠTO": 2152,
            "Ġty": 2153,
            "Ġlay": 2154,
            "Ġtrans": 2155,
            "ator": 2156,
            "Ġsister": 2157,
            "Ġlad": 2158,
            "anuary": 2159,
            "*C": 2160,
            "ousand": 2161,
            "ĠBl": 2162,
            "Ġadv": 2163,
            "Ġgun": 2164,
            "[m": 2165,
            "aced": 2166,
            "ately": 2167,
            "oof": 2168,
            "ists": 2169,
            "Erm": 2170,
            "end": 2171,
            "els": 2172,
            "Ġlov": 2173,
            "Ġpast": 2174,
            "Ġforg": 2175,
            "Ġfuck": 2176,
            "ĠMag": 2177,
            "Ġorder": 2178,
            "Ġsun": 2179,
            "Ġmot": 2180,
            "Ġsum": 2181,
            "Ġhon": 2182,
            "gy": 2183,
            "Ġdepart": 2184,
            "Ġtried": 2185,
            "Ġrece": 2186,
            "Ġexam": 2187,
            "Ġamong": 2188,
            "you": 2189,
            "iving": 2190,
            "ĠWell": 2191,
            "ĠIf": 2192,
            "itch": 2193,
            "iding": 2194,
            "Ġearly": 2195,
            "umb": 2196,
            "Ġart": 2197,
            "ana": 2198,
            "Ġbat": 2199,
            "Ġacross": 2200,
            "Ġtouch": 2201,
            "ĠBessie": 2202,
            "Ġpos": 2203,
            "Ġsitting": 2204,
            "TER": 2205,
            "Ġbath": 2206,
            "cri": 2207,
            "ĠBob": 2208,
            "Ġra": 2209,
            "Ġriver": 2210,
            "ken": 2211,
            "Ġlo": 2212,
            "angu": 2213,
            "ichael": 2214,
            "Ġproblem": 2215,
            "[p": 2216,
            "ĠEleanor": 2217,
            "Ġreac": 2218,
            "teen": 2219,
            "Ġlived": 2220,
            "pril": 2221,
            "Here": 2222,
            "Ġda": 2223,
            "ering": 2224,
            "Ġroll": 2225,
            "Ġstar": 2226,
            "Ġprot": 2227,
            "ĠEnglish": 2228,
            "Your": 2229,
            "bit": 2230,
            "Ġfootball": 2231,
            "Get": 2232,
            "Ġbur": 2233,
            "Ġsomebody": 2234,
            "Ġglad": 2235,
            "Ġchance": 2236,
            "Ġran": 2237,
            "ĠWhen": 2238,
            "-c": 2239,
            "Ġcup": 2240,
            "gas": 2241,
            "ĠBomba": 2242,
            "ek": 2243,
            "rat": 2244,
            "ĠWar": 2245,
            "lly": 2246,
            "ĠJanuary": 2247,
            "ement": 2248,
            "ĠCon": 2249,
            "ĠChi": 2250,
            "Ġexpect": 2251,
            "Ġfree": 2252,
            "Ġbuy": 2253,
            "Ġconc": 2254,
            "Ġmilk": 2255,
            "ĠTH": 2256,
            "owed": 2257,
            "ĠCan": 2258,
            "Ġnews": 2259,
            "Ġclass": 2260,
            "Ġattack": 2261,
            "AP": 2262,
            "men": 2263,
            "acher": 2264,
            "ism": 2265,
            "Ġsever": 2266,
            "Ġthousand": 2267,
            "ĠBar": 2268,
            "bed": 2269,
            "Ġwin": 2270,
            "ices": 2271,
            "ovember": 2272,
            "--------": 2273,
            "Ġseems": 2274,
            "-t": 2275,
            "Ġsilver": 2276,
            "Ġjo": 2277,
            "Ġtea": 2278,
            "Ġkiss": 2279,
            "Ġphone": 2280,
            "raid": 2281,
            "Ġbag": 2282,
            "Ġnine": 2283,
            "Ġfavor": 2284,
            "ĠDavid": 2285,
            "Ġhit": 2286,
            "ĠLe": 2287,
            "ĠSc": 2288,
            "ris": 2289,
            "ature": 2290,
            "*URS": 2291,
            "ĠHer": 2292,
            "que": 2293,
            "Ġheld": 2294,
            "Ġknows": 2295,
            "ges": 2296,
            "ays": 2297,
            "velop": 2298,
            "Ġtomorrow": 2299,
            "'\\": 2300,
            "ĠEl": 2301,
            "Ġfrog": 2302,
            "Ġlaw": 2303,
            "Ġthinking": 2304,
            "ium": 2305,
            "Ġfast": 2306,
            "ĠPro": 2307,
            "ional": 2308,
            "eared": 2309,
            "Ġobject": 2310,
            "Ġkilled": 2311,
            "US": 2312,
            "Ġseveral": 2313,
            "Ġpu": 2314,
            "ued": 2315,
            "Ġappro": 2316,
            "Ġtakes": 2317,
            "Ġbird": 2318,
            "OL": 2319,
            "ĠPe": 2320,
            "ulation": 2321,
            "Ġyours": 2322,
            "Ġz": 2323,
            "Ġcreat": 2324,
            "Sh": 2325,
            "!\\\"\\": 2326,
            "erv": 2327,
            "Ġseries": 2328,
            "-f": 2329,
            "alth": 2330,
            "Ġarm": 2331,
            "Ġresp": 2332,
            "Ġvill": 2333,
            "Ġquiet": 2334,
            "Ġdad": 2335,
            "ically": 2336,
            "Ġnorth": 2337,
            "ĠGerman": 2338,
            "eed": 2339,
            "zy": 2340,
            "Ġmod": 2341,
            "orld": 2342,
            "ĠBrit": 2343,
            "Ġgroup": 2344,
            "Ġsurpr": 2345,
            "arch": 2346,
            "ello": 2347,
            "iter": 2348,
            "Ġlangu": 2349,
            "ney": 2350,
            "-b": 2351,
            "Ġperhaps": 2352,
            "itc": 2353,
            "Ġpot": 2354,
            "Ġsend": 2355,
            "ĠKing": 2356,
            "Ġcompany": 2357,
            "Ġlovely": 2358,
            "Ġtoy": 2359,
            "min": 2360,
            "ĠNovember": 2361,
            "Ġblood": 2362,
            "vision": 2363,
            "ilt": 2364,
            "Ġwood": 2365,
            "ived": 2366,
            "Ġ-": 2367,
            "Ġooh": 2368,
            "though": 2369,
            "Ġconst": 2370,
            "Ġdress": 2371,
            "Ġjump": 2372,
            "amer": 2373,
            "Ġwall": 2374,
            "ĠDo": 2375,
            "ĠPhil": 2376,
            "itten": 2377,
            "iversity": 2378,
            "rench": 2379,
            "?âĢĿ\\": 2380,
            "Ġliving": 2381,
            "Ġnose": 2382,
            "ĠOF": 2383,
            "ere": 2384,
            "\\\".\\": 2385,
            "ĠSh": 2386,
            "Ġkept": 2387,
            "singing": 2388,
            "Ġbirthday": 2389,
            "osp": 2390,
            "ract": 2391,
            "ĠGu": 2392,
            "Ġsoft": 2393,
            "Ġcounty": 2394,
            "arth": 2395,
            "ĠGeor": 2396,
            "Ġpar": 2397,
            "Ġusually": 2398,
            "Ġafraid": 2399,
            "Ġcarry": 2400,
            "rom": 2401,
            "One": 2402,
            "gue": 2403,
            "Ġwow": 2404,
            "stem": 2405,
            "âĢľI": 2406,
            "ility": 2407,
            "\\\"\\": 2408,
            "ient": 2409,
            "Ġear": 2410,
            "Ġpoints": 2411,
            "Ġdaughter": 2412,
            "Ġheav": 2413,
            "Ġuhhuh": 2414,
            "Ġstep": 2415,
            "Ġanswer": 2416,
            "Ġcou": 2417,
            "ĠFrance": 2418,
            "Ah": 2419,
            "ler": 2420,
            "Ġfix": 2421,
            "Ġrele": 2422,
            "iff": 2423,
            "Ġtick": 2424,
            "Ġstraight": 2425,
            "ĠMama": 2426,
            "Ġsold": 2427,
            "ĠSteven": 2428,
            "Ġhist": 2429,
            "aint": 2430,
            "Ġreport": 2431,
            "OM": 2432,
            "[s": 2433,
            "irt": 2434,
            "Ġprof": 2435,
            "Ġrunning": 2436,
            "Ġann": 2437,
            "overed": 2438,
            "Ġlots": 2439,
            "Ġcorn": 2440,
            "att": 2441,
            "Ġshop": 2442,
            "Ġnin": 2443,
            "ĠDon": 2444,
            "Ġclear": 2445,
            "Ġseat": 2446,
            "Ġcharac": 2447,
            "Ġmember": 2448,
            "âĢĶ": 2449,
            "Ġvocal": 2450,
            "mon": 2451,
            "Ġtrouble": 2452,
            "Because": 2453,
            "Ġice": 2454,
            "Ġain": 2455,
            "Ġwithin": 2456,
            "Ġla": 2457,
            "ctober": 2458,
            "ause": 2459,
            "ĠWorld": 2460,
            "co": 2461,
            "dden": 2462,
            "Ġcray": 2463,
            "An": 2464,
            "Ġeating": 2465,
            "ounter": 2466,
            "ration": 2467,
            "Ġcamp": 2468,
            "Ġmonths": 2469,
            "Ġfield": 2470,
            "Ġfur": 2471,
            "Ġdiff": 2472,
            "Ġbecome": 2473,
            "Ġhours": 2474,
            "Ġve": 2475,
            "ajor": 2476,
            "Ġworked": 2477,
            "Ġcareful": 2478,
            "Ġstood": 2479,
            "wered": 2480,
            "gram": 2481,
            "Ġcannot": 2482,
            "inning": 2483,
            "Ġnamed": 2484,
            "ĠTr": 2485,
            "Ġcross": 2486,
            "Ġsudden": 2487,
            "ND": 2488,
            "Ġgra": 2489,
            "Ġsea": 2490,
            "ĠJane": 2491,
            "band": 2492,
            "ĠJack": 2493,
            "Ġwhether": 2494,
            "ggy": 2495,
            "Ġbreat": 2496,
            "urch": 2497,
            "Ġhung": 2498,
            "ĠApril": 2499,
            "ounds": 2500,
            "Ġmarried": 2501,
            "ĠJuly": 2502,
            "Ġtired": 2503,
            "Ġforward": 2504,
            "Ġring": 2505,
            "ĠCol": 2506,
            "Ġwomen": 2507,
            "ping": 2508,
            "Ġcried": 2509,
            "actly": 2510,
            "Ġthrow": 2511,
            "Ġeverybody": 2512,
            "Ġthemselves": 2513,
            "Ġpartic": 2514,
            "Ġcor": 2515,
            "entle": 2516,
            "par": 2517,
            "Ġfit": 2518,
            "Ġdream": 2519,
            "hern": 2520,
            "Ġanswered": 2521,
            "eptember": 2522,
            "erc": 2523,
            "ĠSw": 2524,
            "Ġclothes": 2525,
            "Ġpage": 2526,
            "Ġhang": 2527,
            "ccess": 2528,
            "Ġlives": 2529,
            "Ġsuppose": 2530,
            "ls": 2531,
            "Ġspecial": 2532,
            "To": 2533,
            "ĠMaggie": 2534,
            "ĠMc": 2535,
            "ED": 2536,
            "ugust": 2537,
            "Ġclim": 2538,
            "ĠX": 2539,
            "Ġseem": 2540,
            "aged": 2541,
            "Ġton": 2542,
            "Ġsand": 2543,
            "Ġdevelop": 2544,
            "ude": 2545,
            "Ġcatch": 2546,
            "Ġlow": 2547,
            "Ġpassed": 2548,
            "Ġcond": 2549,
            "ories": 2550,
            "Ġcomple": 2551,
            "Ġdepartment": 2552,
            "Ġband": 2553,
            "Ġfly": 2554,
            "Ġrain": 2555,
            "Ġpig": 2556,
            "empt": 2557,
            "ĠOctober": 2558,
            "ored": 2559,
            "Ġeasy": 2560,
            "Ġknock": 2561,
            "ician": 2562,
            "--\\": 2563,
            "Ġpost": 2564,
            "ights": 2565,
            "ĠSIS": 2566,
            "Ġpretend": 2567,
            "wo": 2568,
            "oth": 2569,
            "Ġspec": 2570,
            "Ġcouple": 2571,
            "Please": 2572,
            "Ġproper": 2573,
            "Ġpossible": 2574,
            "Ġfil": 2575,
            "Ġdoctor": 2576,
            "Ġbroken": 2577,
            "ouncil": 2578,
            "LS": 2579,
            "Ġegg": 2580,
            "Ġsystem": 2581,
            "Ġill": 2582,
            "uk": 2583,
            "ding": 2584,
            "Ġfeeling": 2585,
            "Ġpleas": 2586,
            "Ġsounds": 2587,
            "Ġputting": 2588,
            "Ġdanger": 2589,
            "Ġtelevision": 2590,
            "-C": 2591,
            "ondon": 2592,
            "Ġcommun": 2593,
            "makes": 2594,
            "rod": 2595,
            "ĠNorth": 2596,
            "Ġstation": 2597,
            "stairs": 2598,
            "Ġpolic": 2599,
            "Ġnational": 2600,
            "ĠMan": 2601,
            "Ġexper": 2602,
            "net": 2603,
            "oops": 2604,
            "Ġdoub": 2605,
            "gar": 2606,
            "ĠPl": 2607,
            "com": 2608,
            "icks": 2609,
            "Ġcontro": 2610,
            "Ġju": 2611,
            "Ġcow": 2612,
            "Ġhors": 2613,
            "Ġdiffic": 2614,
            "joy": 2615,
            "rigin": 2616,
            "ĠSeptember": 2617,
            "ĠJoe": 2618,
            "ean": 2619,
            "ray": 2620,
            "ĠAust": 2621,
            "ĠCap": 2622,
            "Ġdest": 2623,
            "ĠCal": 2624,
            "Ġslow": 2625,
            "Ġord": 2626,
            "THE": 2627,
            "ĠPaul": 2628,
            "Ġarri": 2629,
            "Ġmillion": 2630,
            "gasps": 2631,
            "Ġlikes": 2632,
            "Ġwindow": 2633,
            "Ġkids": 2634,
            "ffect": 2635,
            "ID": 2636,
            "TH": 2637,
            "Ġdie": 2638,
            "Ġpush": 2639,
            "Ex": 2640,
            "Ġarms": 2641,
            "well": 2642,
            "Ġcool": 2643,
            "Ġabs": 2644,
            "ogn": 2645,
            "itty": 2646,
            "Ġview": 2647,
            "ears": 2648,
            "Ġneeds": 2649,
            "ĠAdam": 2650,
            "owers": 2651,
            "uts": 2652,
            "ĠAb": 2653,
            "ager": 2654,
            "eal": 2655,
            "unicip": 2656,
            "ĠPat": 2657,
            "ÃŃ": 2658,
            "Ġsal": 2659,
            "Ġdiv": 2660,
            "ĠMichael": 2661,
            "Ġcirc": 2662,
            "Ġforget": 2663,
            "Ġreleased": 2664,
            "form": 2665,
            "ances": 2666,
            "Ġgovernment": 2667,
            "ai": 2668,
            "Ġcause": 2669,
            "ĠAugust": 2670,
            "ĠGrand": 2671,
            "Ġstat": 2672,
            "Ġgentle": 2673,
            "ĠSouth": 2674,
            "Ġwaiting": 2675,
            "friend": 2676,
            "ĠLondon": 2677,
            "Ġworry": 2678,
            "GH": 2679,
            "ox": 2680,
            "box": 2681,
            "Ġoper": 2682,
            "Ġsupport": 2683,
            "Ġabove": 2684,
            "babbles": 2685,
            "Ġmoved": 2686,
            "VE": 2687,
            "ked": 2688,
            "Ġwhatever": 2689,
            "Ġnoises": 2690,
            "rop": 2691,
            "ode": 2692,
            "ardon": 2693,
            "Ġvar": 2694,
            "Ġhowever": 2695,
            "Ġhus": 2696,
            "Ġoffice": 2697,
            ".S": 2698,
            "come": 2699,
            "Ġking": 2700,
            "Ġevent": 2701,
            "emy": 2702,
            "Ġhar": 2703,
            "amb": 2704,
            "igg": 2705,
            "Ġmur": 2706,
            "'S": 2707,
            "ĠCity": 2708,
            "Ġtonight": 2709,
            "Ġmiles": 2710,
            "Ġequ": 2711,
            "Ġputs": 2712,
            "more": 2713,
            "..\\": 2714,
            "cember": 2715,
            "cient": 2716,
            "Ġest": 2717,
            "Ġseason": 2718,
            "ops": 2719,
            "Ġsuccess": 2720,
            "ĠIndian": 2721,
            "oren": 2722,
            "Ġstanding": 2723,
            "Ġchanged": 2724,
            "Ġrequ": 2725,
            "Ġorgan": 2726,
            "oose": 2727,
            "Ġtruck": 2728,
            "Ġtelling": 2729,
            "resent": 2730,
            "Ġgold": 2731,
            "Ġforgot": 2732,
            "ĠGo": 2733,
            "Ġsca": 2734,
            "uced": 2735,
            "Ġpolice": 2736,
            "Have": 2737,
            "Ġperfect": 2738,
            "Ġrecogn": 2739,
            "ĠEur": 2740,
            "uce": 2741,
            "yl": 2742,
            "Ġshoot": 2743,
            "Ġ*": 2744,
            "Ġtowards": 2745,
            "Ġwhom": 2746,
            "Every": 2747,
            "Ġfa": 2748,
            "urs": 2749,
            "alc": 2750,
            "Ġbye": 2751,
            "Ġcaught": 2752,
            "Ġmeant": 2753,
            "Ġluck": 2754,
            "Ġshot": 2755,
            "Ġshar": 2756,
            "Ġwhose": 2757,
            "Ġeffect": 2758,
            "Ġstru": 2759,
            "Ġ?\\": 2760,
            "fer": 2761,
            "Ġmist": 2762,
            "terday": 2763,
            "Ġnearly": 2764,
            "mbers": 2765,
            "ceed": 2766,
            "noon": 2767,
            "Ġgod": 2768,
            "ĠOne": 2769,
            "Ġanyway": 2770,
            "ele": 2771,
            "omas": 2772,
            "Ġenjoy": 2773,
            "Maybe": 2774,
            "Ġshoes": 2775,
            "Ġreturned": 2776,
            "With": 2777,
            "va": 2778,
            "Ġexcl": 2779,
            "ĠMarch": 2780,
            "over": 2781,
            "itchen": 2782,
            "ror": 2783,
            "fast": 2784,
            "Ġow": 2785,
            "Ġwritten": 2786,
            "mas": 2787,
            "ĠAunt": 2788,
            "ified": 2789,
            "bs": 2790,
            "Ġpen": 2791,
            "Ġshut": 2792,
            "ĠFrench": 2793,
            "ffee": 2794,
            "Ġmunicip": 2795,
            "-m": 2796,
            "]!\\": 2797,
            "reed": 2798,
            "Some": 2799,
            "iron": 2800,
            "Ġpress": 2801,
            "Ġpopulation": 2802,
            "-w": 2803,
            "Ġformer": 2804,
            "ĠJune": 2805,
            "Ġcos": 2806,
            "Ġhop": 2807,
            "phone": 2808,
            "Ġvocalises": 2809,
            "Ġafternoon": 2810,
            "Ġesc": 2811,
            "Ġthirty": 2812,
            "ĠMy": 2813,
            "Ġcover": 2814,
            "Ġdirect": 2815,
            "Ġorigin": 2816,
            "Ġsick": 2817,
            "Ġkitchen": 2818,
            "ĠUniversity": 2819,
            "Ġtest": 2820,
            "uit": 2821,
            "Ġfill": 2822,
            "Ġboard": 2823,
            "Ġprogram": 2824,
            "Ġclos": 2825,
            "Ġpract": 2826,
            "rupt": 2827,
            "Ġtape": 2828,
            "nded": 2829,
            "Of": 2830,
            "ior": 2831,
            "Ġdisapp": 2832,
            "ggest": 2833,
            "Ġquickly": 2834,
            "Ġdet": 2835,
            "Ġlanguage": 2836,
            "Ġjack": 2837,
            "âĢĻll": 2838,
            "CHILD": 2839,
            "ency": 2840,
            "ĠMe": 2841,
            "Ġhusband": 2842,
            "ising": 2843,
            "Ġchick": 2844,
            "tom": 2845,
            "ĠNow": 2846,
            "ground": 2847,
            "Ġbroke": 2848,
            "ĠDecember": 2849,
            "ĠEdna": 2850,
            "-p": 2851,
            "uct": 2852,
            "Ġbuilding": 2853,
            "Ġride": 2854,
            "ĠMa": 2855,
            "Ġturns": 2856,
            "Ġfellow": 2857,
            "ience": 2858,
            "cially": 2859,
            "ĠCharl": 2860,
            "Ġban": 2861,
            "Ġmis": 2862,
            "Ġfat": 2863,
            "Ġfear": 2864,
            "ĠWest": 2865,
            "rible": 2866,
            ".cha": 2867,
            "/CHILD": 2868,
            "Ġtoward": 2869,
            "Ġship": 2870,
            "Ġsuggest": 2871,
            "Ġchildes": 2872,
            "/CHILDES": 2873,
            "AM": 2874,
            "Ġahead": 2875,
            "Ġlonger": 2876,
            "Ġfarm": 2877,
            "aimed": 2878,
            "Ġmad": 2879,
            "Ġdeep": 2880,
            "ula": 2881,
            "Ġexactly": 2882,
            "that": 2883,
            "Ġcost": 2884,
            "ĠJose": 2885,
            "Ġought": 2886,
            "Ġdrive": 2887,
            "OW": 2888,
            "Ġeye": 2889,
            "Ġfollowing": 2890,
            "arden": 2891,
            "la": 2892,
            "Ġisland": 2893,
            "Ġposition": 2894,
            "[F": 2895,
            "ron": 2896,
            "what": 2897,
            "ĠAlex": 2898,
            "ĠSir": 2899,
            ",--": 2900,
            "ni": 2901,
            "ĠAfter": 2902,
            "ĠBritish": 2903,
            "Ġcharacter": 2904,
            "Ġexcept": 2905,
            "Ġfort": 2906,
            "ĠRep": 2907,
            "Ġevening": 2908,
            "view": 2909,
            "yn": 2910,
            "oop": 2911,
            "Ġreplied": 2912,
            "*R": 2913,
            "Ġsight": 2914,
            "Ġmembers": 2915,
            "Ġsafe": 2916,
            "Ġinstead": 2917,
            "'.\\": 2918,
            "Ġav": 2919,
            "Ġsol": 2920,
            "Ġprop": 2921,
            "Ġvisit": 2922,
            "reek": 2923,
            "Ġregion": 2924,
            "Ġfigure": 2925,
            "[t": 2926,
            "Ġsave": 2927,
            "Ġanyone": 2928,
            "Ġfinish": 2929,
            "Ġlie": 2930,
            "Ġdem": 2931,
            "Ġpublic": 2932,
            "Ġtot": 2933,
            "ĠMin": 2934,
            "Ġmonkey": 2935,
            "oles": 2936,
            "aud": 2937,
            "Ġvillage": 2938,
            "Hello": 2939,
            "Ġcommon": 2940,
            "hel": 2941,
            "Ġwild": 2942,
            "Ġtow": 2943,
            "Ġhaha": 2944,
            "Ġyesterday": 2945,
            "Ġhappens": 2946,
            "Ġparent": 2947,
            "ighb": 2948,
            "Ġworth": 2949,
            "Ġwrote": 2950,
            "Ġspend": 2951,
            "Any": 2952,
            "Ġcast": 2953,
            "uation": 2954,
            "Ġsuper": 2955,
            "ĠNational": 2956,
            "uthor": 2957,
            "ĠDan": 2958,
            "Ġmiddle": 2959,
            "ott": 2960,
            "Ġeh": 2961,
            "Ġwhis": 2962,
            "Ġstuck": 2963,
            "ift": 2964,
            "ffic": 2965,
            "Ġcamer": 2966,
            "Ġprotect": 2967,
            "Ġdi": 2968,
            "Ġru": 2969,
            "Ġcoffee": 2970,
            "Ġcurrent": 2971,
            "night": 2972,
            "Ġtem": 2973,
            "Ġpieces": 2974,
            "Ġdecided": 2975,
            "idence": 2976,
            "ums": 2977,
            "hile": 2978,
            "Ġinterested": 2979,
            "ospital": 2980,
            "Ġbutter": 2981,
            "Wh": 2982,
            "ino": 2983,
            "estern": 2984,
            "ĠGood": 2985,
            "ining": 2986,
            "Ġmount": 2987,
            "acy": 2988,
            "bur": 2989,
            "Ġbow": 2990,
            "ĠThomas": 2991,
            "ichard": 2992,
            "ege": 2993,
            "Ġsus": 2994,
            "Ġgiving": 2995,
            "resident": 2996,
            "Ġmeeting": 2997,
            "ĠEngland": 2998,
            "Ġjuice": 2999,
            "rit": 3000,
            "AL": 3001,
            "Ġplaces": 3002,
            "Ġbuilt": 3003,
            "che": 3004,
            "gest": 3005,
            "Ġbes": 3006,
            "Ġservice": 3007,
            "rs": 3008,
            "*COL": 3009,
            "Ġheavy": 3010,
            "Ġgames": 3011,
            "CHAP": 3012,
            "Ġsupposed": 3013,
            "Ġlearn": 3014,
            "iod": 3015,
            "eddy": 3016,
            "Ġiss": 3017,
            "Ġang": 3018,
            "ology": 3019,
            "bert": 3020,
            "Ġusing": 3021,
            "Ġdoubt": 3022,
            "Ġtreat": 3023,
            "tered": 3024,
            "Ġteacher": 3025,
            "ĠFrank": 3026,
            "Ġcommune": 3027,
            "Ġsilence": 3028,
            "Ġcomplete": 3029,
            "Ġburn": 3030,
            "Ġrad": 3031,
            "ĠWhy": 3032,
            "Ġfollowed": 3033,
            "orence": 3034,
            "Ġdam": 3035,
            "Ġtrust": 3036,
            "*ELS": 3037,
            "CHAPTER": 3038,
            "ĠEve": 3039,
            "Ġswim": 3040,
            "Ġfavorite": 3041,
            "iling": 3042,
            "ĠDr": 3043,
            "IC": 3044,
            "ĠRos": 3045,
            "note": 3046,
            "ushed": 3047,
            "Ġstri": 3048,
            "olute": 3049,
            "ĠComm": 3050,
            "[counter": 3051,
            "oul": 3052,
            "Ġthird": 3053,
            "Ġreached": 3054,
            "itted": 3055,
            "Ġopened": 3056,
            "Ġlegs": 3057,
            "See": 3058,
            "ishing": 3059,
            "ĠPar": 3060,
            "Ġsomewhere": 3061,
            "*UN": 3062,
            "Ġsilly": 3063,
            "Ġcop": 3064,
            "Ġfail": 3065,
            "Ġbas": 3066,
            "eally": 3067,
            "Ġpardon": 3068,
            "Ġcertainly": 3069,
            "Ġval": 3070,
            "Ġsnow": 3071,
            "Ġgrow": 3072,
            "Ġstopped": 3073,
            "Ġstore": 3074,
            "Ġappear": 3075,
            "Ġanimal": 3076,
            "Ġbreakfast": 3077,
            "Ġtur": 3078,
            "Ġclub": 3079,
            "ĠEurope": 3080,
            "ips": 3081,
            "Ch": 3082,
            "Ġ!\\": 3083,
            "erry": 3084,
            "Ġquar": 3085,
            "ĠCaptain": 3086,
            "iny": 3087,
            "Ġbelong": 3088,
            "king": 3089,
            "ĠJoseph": 3090,
            "con": 3091,
            "Ġpack": 3092,
            "ĠBrad": 3093,
            "ging": 3094,
            "Ġled": 3095,
            "ĠPol": 3096,
            "Ġindeed": 3097,
            "iled": 3098,
            "Ġshout": 3099,
            "After": 3100,
            "Ġmam": 3101,
            "Ġlunch": 3102,
            "ills": 3103,
            "Ġletters": 3104,
            ".'\\": 3105,
            "Ġblow": 3106,
            "AND": 3107,
            "Ġprofess": 3108,
            ").\\": 3109,
            "sings": 3110,
            "Ġgeneral": 3111,
            "ti": 3112,
            "Ġcomfort": 3113,
            "Ġresult": 3114,
            "Ġmatch": 3115,
            "Ġconsider": 3116,
            "Ġstreet": 3117,
            "Ġbought": 3118,
            "Ġcrayon": 3119,
            "Ġsingle": 3120,
            "Ġlevel": 3121,
            "Ġinform": 3122,
            "Ġmajor": 3123,
            "ille": 3124,
            "Ġneck": 3125,
            "Ġleaving": 3126,
            "whis": 3127,
            "Ġsecret": 3128,
            "Ġpresident": 3129,
            "Ġlocal": 3130,
            "ĠMum": 3131,
            "aves": 3132,
            "Ġaccount": 3133,
            "Ġreceived": 3134,
            "ns": 3135,
            "isc": 3136,
            "Ġworks": 3137,
            "Ġwatches": 3138,
            "Ġstrange": 3139,
            "OK": 3140,
            "eder": 3141,
            "iles": 3142,
            "Ġholds": 3143,
            "onel": 3144,
            "Ġweeks": 3145,
            "mpions": 3146,
            "Ġcamera": 3147,
            "ĠWh": 3148,
            "Ġdep": 3149,
            "ĠAm": 3150,
            "Ġremark": 3151,
            "Ġdifficult": 3152,
            "Ġcre": 3153,
            "Ġperiod": 3154,
            "ternational": 3155,
            "Ġalthough": 3156,
            "Ġadm": 3157,
            "ootnote": 3158,
            "Or": 3159,
            "Ġpark": 3160,
            "ĠJwww": 3161,
            "Ġeveryone": 3162,
            "go": 3163,
            "Ġwarm": 3164,
            "[Footnote": 3165,
            "phan": 3166,
            "Ġsense": 3167,
            "Ġdecl": 3168,
            "Ġexample": 3169,
            "Ġmaster": 3170,
            "Ġkick": 3171,
            "Ġmention": 3172,
            "Ġreach": 3173,
            "itz": 3174,
            "omin": 3175,
            "Ġcareer": 3176,
            "Ġut": 3177,
            "Ġbottom": 3178,
            "Ġbull": 3179,
            "Ġdry": 3180,
            "ĠJim": 3181,
            "rie": 3182,
            "ĠâĢĺ": 3183,
            "Ġcrying": 3184,
            "!âĢĿ": 3185,
            "how": 3186,
            "mm": 3187,
            "Ġlift": 3188,
            "ĠLea": 3189,
            "Ġaccept": 3190,
            "Ġapart": 3191,
            "Ġdefe": 3192,
            "NA": 3193,
            "iday": 3194,
            "Ġrub": 3195,
            "Ġleaves": 3196,
            "ya": 3197,
            "Ġhoney": 3198,
            "Ġemp": 3199,
            "Ġfifty": 3200,
            "Ġfinger": 3201,
            "Ġmunicipality": 3202,
            "bers": 3203,
            "Ġbang": 3204,
            "Ġbrown": 3205,
            "Ġcompan": 3206,
            "Ġexpress": 3207,
            "?âĢĿ": 3208,
            "Ġorange": 3209,
            "Ġmoving": 3210,
            "Ġcand": 3211,
            "Ġhuman": 3212,
            "ĠSha": 3213,
            "cent": 3214,
            "[the": 3215,
            "Ġcake": 3216,
            "Ġwash": 3217,
            "*JW": 3218,
            "Ġpolitician": 3219,
            "Ġlim": 3220,
            "bing": 3221,
            "Ġsad": 3222,
            "cket": 3223,
            "Ġbright": 3224,
            "ĠGeorge": 3225,
            "nel": 3226,
            "Ġcrazy": 3227,
            "Ġsuddenly": 3228,
            "Ġdescri": 3229,
            "Ġbread": 3230,
            "Ġappeared": 3231,
            "ancy": 3232,
            "ĠâĢĻ": 3233,
            "ograp": 3234,
            "wh": 3235,
            "iforn": 3236,
            "-h": 3237,
            "aff": 3238,
            "ĠNot": 3239,
            "ization": 3240,
            "Ġhungry": 3241,
            "Ġhospital": 3242,
            "Ġanybody": 3243,
            "ĠFlorence": 3244,
            "alm": 3245,
            "ĠAND": 3246,
            "Ġhistory": 3247,
            "Ġhig": 3248,
            "Ġvide": 3249,
            "pecially": 3250,
            "Ġincluding": 3251,
            "Ġlab": 3252,
            "acing": 3253,
            "ils": 3254,
            "Ġalb": 3255,
            "Ġspoke": 3256,
            "Ġglass": 3257,
            "Ġelect": 3258,
            "Ġwatching": 3259,
            "ida": 3260,
            "Ġdev": 3261,
            "Ġcarried": 3262,
            "sc": 3263,
            "ĠTe": 3264,
            "resh": 3265,
            "ĠOr": 3266,
            "Ġauthor": 3267,
            "Ġengine": 3268,
            "Sorry": 3269,
            "Ġ.": 3270,
            "elen": 3271,
            "Ġprison": 3272,
            "Ġsummer": 3273,
            "nect": 3274,
            "Ġhasn": 3275,
            "Ġallowed": 3276,
            "Ġdesign": 3277,
            "Ġfurther": 3278,
            "Ġloc": 3279,
            "ĠGreat": 3280,
            "Ġtruth": 3281,
            "ording": 3282,
            "Ġbusy": 3283,
            "ifornia": 3284,
            "roy": 3285,
            "Ġanymore": 3286,
            "Ġcompet": 3287,
            "Ġcapital": 3288,
            "ev": 3289,
            "Ġimag": 3290,
            "oman": 3291,
            "ensus": 3292,
            "ĠINV": 3293,
            "*UNK": 3294,
            "Ġ$": 3295,
            "ĠTo": 3296,
            "ĠPresident": 3297,
            "Ġcab": 3298,
            "ĠSome": 3299,
            "Uh": 3300,
            "_,": 3301,
            "Ġtast": 3302,
            "Ġsmell": 3303,
            "Ġclever": 3304,
            "Ġlaughs": 3305,
            "Ġbased": 3306,
            "Ġnorm": 3307,
            "Ġincre": 3308,
            "Ġvol": 3309,
            "ĠIT": 3310,
            "orts": 3311,
            "Ġuhoh": 3312,
            "Ġbank": 3313,
            "ĠEll": 3314,
            "Ġtype": 3315,
            "ĠRichard": 3316,
            "Thanks": 3317,
            "ĠCent": 3318,
            "ĠRoy": 3319,
            "ales": 3320,
            "Ġslight": 3321,
            "ET": 3322,
            "Ġbud": 3323,
            "Ġnecess": 3324,
            "Ġspot": 3325,
            "asket": 3326,
            "work": 3327,
            "ĠCalifornia": 3328,
            "Ġgen": 3329,
            "ĠDad": 3330,
            "Ġhorses": 3331,
            "fl": 3332,
            "Ġself": 3333,
            "Ġspir": 3334,
            "AY": 3335,
            "Ġgall": 3336,
            "Ġbabies": 3337,
            "Ġoo": 3338,
            "ĠChristmas": 3339,
            ",'": 3340,
            "Ġwand": 3341,
            "Ġyep": 3342,
            "Ġhealth": 3343,
            "ĠAmy": 3344,
            "Ġneighb": 3345,
            "Ġthanks": 3346,
            "Ġgarden": 3347,
            "arty": 3348,
            "ission": 3349,
            "Ġexclaimed": 3350,
            "Ġsouth": 3351,
            "Ġwriting": 3352,
            "Ġadded": 3353,
            "Ġtrees": 3354,
            "Ġbreath": 3355,
            "rel": 3356,
            "ĠItal": 3357,
            "Ġattention": 3358,
            "Ġaccident": 3359,
            "ourn": 3360,
            "ĠAmerica": 3361,
            "Ġinvol": 3362,
            "pes": 3363,
            "Ġdance": 3364,
            "Ġgas": 3365,
            "Ġitself": 3366,
            "ĠRuss": 3367,
            "Ġnames": 3368,
            "Ġlock": 3369,
            "bl": 3370,
            "Ġbra": 3371,
            "nes": 3372,
            "off": 3373,
            "ashing": 3374,
            "Ġcorner": 3375,
            "Ġwet": 3376,
            "uty": 3377,
            "ran": 3378,
            "Ġshouldn": 3379,
            "Ġwalking": 3380,
            "Ġsell": 3381,
            "ĠDor": 3382,
            "ĠEx": 3383,
            "Ġver": 3384,
            "\\\")": 3385,
            "isten": 3386,
            "Ġdistance": 3387,
            "Wait": 3388,
            "Ġtail": 3389,
            "Ġpink": 3390,
            "ilar": 3391,
            "Ġcompl": 3392,
            "Ġparents": 3393,
            "iced": 3394,
            "Ġvict": 3395,
            "ĠSm": 3396,
            "Ġpuzz": 3397,
            "Ġplayer": 3398,
            "Ġholding": 3399,
            "unny": 3400,
            "Ġbeginning": 3401,
            "Ġpause": 3402,
            "ĠWilliam": 3403,
            "'T": 3404,
            "Ġliked": 3405,
            "ĠPeter": 3406,
            "cious": 3407,
            "ĠBRO": 3408,
            "ribut": 3409,
            "astic": 3410,
            "aper": 3411,
            "ĠAustral": 3412,
            "Hi": 3413,
            "Ġhall": 3414,
            "Ġdropped": 3415,
            "Ġblocks": 3416,
            "ien": 3417,
            "vol": 3418,
            "Ġhun": 3419,
            "ĠAg": 3420,
            "Ġfeed": 3421,
            "Ġcapt": 3422,
            "Ġcollect": 3423,
            "Ġsubject": 3424,
            "Ġcontinued": 3425,
            "Ġspace": 3426,
            "Ġtrack": 3427,
            "Ġcream": 3428,
            "Ġshowed": 3429,
            "His": 3430,
            "Ġattempt": 3431,
            "Ġeduc": 3432,
            "ston": 3433,
            "Ġnatur": 3434,
            "Ġhole": 3435,
            "ĠSe": 3436,
            "ipe": 3437,
            "Ġquestions": 3438,
            "Ġchicken": 3439,
            "Ġfut": 3440,
            "Ġhide": 3441,
            "ĠSec": 3442,
            "ĠPer": 3443,
            "elve": 3444,
            "Ġrespect": 3445,
            "dd": 3446,
            "Ġnone": 3447,
            "atch": 3448,
            "Ġbeat": 3449,
            "Ġsex": 3450,
            "por": 3451,
            "ply": 3452,
            "Ġtor": 3453,
            "Ġgar": 3454,
            "Ġsituation": 3455,
            "board": 3456,
            "iol": 3457,
            "Ġdanc": 3458,
            "ases": 3459,
            "Tell": 3460,
            "Ġfucking": 3461,
            "ume": 3462,
            "Ġrepresent": 3463,
            "Ġloved": 3464,
            "mo": 3465,
            "ades": 3466,
            "ference": 3467,
            "Ġchurch": 3468,
            "ĠBy": 3469,
            "Ġ(\\\"": 3470,
            "ĠUncle": 3471,
            "now": 3472,
            "itive": 3473,
            "ĠHall": 3474,
            "Ġchief": 3475,
            "viously": 3476,
            "Ġhous": 3477,
            "Ġearth": 3478,
            "Ġcheese": 3479,
            "Ã³": 3480,
            "Ġdelight": 3481,
            "Ġcontrol": 3482,
            "CK": 3483,
            "ument": 3484,
            "ĠRiver": 3485,
            "Ġprin": 3486,
            "UT": 3487,
            "ĠHouse": 3488,
            "Ġslowly": 3489,
            "Ġweren": 3490,
            "aug": 3491,
            "Take": 3492,
            "Will": 3493,
            "Ġloud": 3494,
            "Ġhast": 3495,
            "ĠThan": 3496,
            "ength": 3497,
            "ĠJames": 3498,
            "Ġbottle": 3499,
            "ires": 3500,
            "Ġdrop": 3501,
            "sey": 3502,
            "iger": 3503,
            "Ġcommand": 3504,
            "Ġlose": 3505,
            "ĠEm": 3506,
            "cell": 3507,
            "rug": 3508,
            "Ġteddy": 3509,
            "ĠSu": 3510,
            "Ġteeth": 3511,
            "%int": 3512,
            "Ġflowers": 3513,
            "Ġlaughing": 3514,
            "cuse": 3515,
            "Ġma": 3516,
            "ĠBE": 3517,
            "aps": 3518,
            "Ġport": 3519,
            "Ġseeing": 3520,
            "Ġrul": 3521,
            "illa": 3522,
            "Ġcharge": 3523,
            "Ġinteresting": 3524,
            "Ġfingers": 3525,
            "iant": 3526,
            "ky": 3527,
            "lt": 3528,
            "Ġmach": 3529,
            "Ġrid": 3530,
            "Ġrole": 3531,
            "Ġproblems": 3532,
            "[g": 3533,
            "aining": 3534,
            "Ġspl": 3535,
            "[mother": 3536,
            "lo": 3537,
            "omes": 3538,
            "cries": 3539,
            "ĠLo": 3540,
            "aker": 3541,
            "Ġcrow": 3542,
            "Really": 3543,
            "Ġdollars": 3544,
            "olutely": 3545,
            "hood": 3546,
            "nand": 3547,
            "Ġeff": 3548,
            "Ġye": 3549,
            "isted": 3550,
            "Stop": 3551,
            "Ġfuture": 3552,
            "iot": 3553,
            "esus": 3554,
            "Ġnor": 3555,
            "ĠMary": 3556,
            "Ġshare": 3557,
            "ounced": 3558,
            "Ġreading": 3559,
            "Ġactiv": 3560,
            "Ġcircle": 3561,
            "Ġpaid": 3562,
            "Ġforce": 3563,
            "Ġanx": 3564,
            "ĠThese": 3565,
            "...?\\": 3566,
            "Ġentire": 3567,
            "Ġvideo": 3568,
            "iers": 3569,
            "yond": 3570,
            "Ġstarts": 3571,
            "Ġeggs": 3572,
            "Ġbene": 3573,
            "play": 3574,
            "clock": 3575,
            "Ġregard": 3576,
            "inite": 3577,
            "Ġmum": 3578,
            "ĠLet": 3579,
            "Ġcomb": 3580,
            "Ġcars": 3581,
            "Ġpriv": 3582,
            "time": 3583,
            "ĠMon": 3584,
            "Ġjud": 3585,
            "ĠDada": 3586,
            "Ġsinging": 3587,
            "Ġhate": 3588,
            "Ġinformation": 3589,
            "wood": 3590,
            "Ġsna": 3591,
            "lymp": 3592,
            "ĠSam": 3593,
            "Ġshit": 3594,
            "het": 3595,
            "Ġwide": 3596,
            "riage": 3597,
            "Like": 3598,
            "Ġgives": 3599,
            "Ġmovies": 3600,
            "Un": 3601,
            "inc": 3602,
            "Ġhost": 3603,
            "Ġneeded": 3604,
            "lect": 3605,
            "Ġnobody": 3606,
            "cture": 3607,
            "ili": 3608,
            "Ġolder": 3609,
            "Ġwalked": 3610,
            "Ġtall": 3611,
            "Ġlying": 3612,
            "Ġbridge": 3613,
            "Ġserious": 3614,
            "gon": 3615,
            "ĠUS": 3616,
            "Ġshows": 3617,
            "Ġwonderful": 3618,
            "ĠIsland": 3619,
            "atives": 3620,
            "ala": 3621,
            "rene": 3622,
            "Ġextra": 3623,
            "rang": 3624,
            "Ġaut": 3625,
            "Ġgoin": 3626,
            "Ġdirection": 3627,
            "ination": 3628,
            "Ġuncle": 3629,
            "Ġsmile": 3630,
            "ĠAlexander": 3631,
            "Ġ...": 3632,
            "aret": 3633,
            "Ġscar": 3634,
            "Ġeast": 3635,
            "Ġconcern": 3636,
            "ads": 3637,
            "ĠJust": 3638,
            "pered": 3639,
            "Ġcard": 3640,
            "Ġwel": 3641,
            "Ġrab": 3642,
            "Ġmem": 3643,
            "Ġsepar": 3644,
            "Ġterm": 3645,
            "Ġpictures": 3646,
            "ĠLuc": 3647,
            "ounded": 3648,
            "ploy": 3649,
            "Ġcreated": 3650,
            "MY": 3651,
            "Ġvers": 3652,
            "ĠLou": 3653,
            "hold": 3654,
            "ĠMark": 3655,
            "Ġproject": 3656,
            "Ġplays": 3657,
            "ggie": 3658,
            "Ġelephan": 3659,
            "Ġespecially": 3660,
            "ĠOlymp": 3661,
            "ption": 3662,
            "Ġhandle": 3663,
            "Ġtowel": 3664,
            "lu": 3665,
            "Ġlength": 3666,
            "icro": 3667,
            "bout": 3668,
            "Ġmass": 3669,
            "ĠCup": 3670,
            "Ġpicked": 3671,
            "Ġoccas": 3672,
            "-\\": 3673,
            "isy": 3674,
            "Ġalbum": 3675,
            ".âĢĻ": 3676,
            "ĠSund": 3677,
            "Ġtwelve": 3678,
            "eep": 3679,
            "Ġep": 3680,
            "ĠIndia": 3681,
            "ĠFAT": 3682,
            "Ġspell": 3683,
            "Ġdrawing": 3684,
            "Ġpurple": 3685,
            "inos": 3686,
            "ession": 3687,
            "medi": 3688,
            "exas": 3689,
            "Ġsimilar": 3690,
            ".--": 3691,
            "ees": 3692,
            "Ġgrass": 3693,
            "ography": 3694,
            "Ġears": 3695,
            "Ġconvers": 3696,
            "Ġbigger": 3697,
            "Ar": 3698,
            "ites": 3699,
            "raft": 3700,
            "Ġearl": 3701,
            "istory": 3702,
            "Ġarmy": 3703,
            "Ġpers": 3704,
            "soci": 3705,
            "Ġcomput": 3706,
            "Ġdue": 3707,
            "rian": 3708,
            "Ġpopular": 3709,
            "Ġet": 3710,
            "Ġcensus": 3711,
            "ico": 3712,
            "Ġcrack": 3713,
            "val": 3714,
            "west": 3715,
            "ĠMex": 3716,
            "Ġpicks": 3717,
            "Ġwag": 3718,
            "Ġnaught": 3719,
            "Ġhy": 3720,
            "Ġspecies": 3721,
            "ashed": 3722,
            "Ġterrible": 3723,
            "uction": 3724,
            "Ġdirty": 3725,
            "Ġrepe": 3726,
            "ĠAre": 3727,
            "ĠRight": 3728,
            "Ġparticular": 3729,
            "ius": 3730,
            "ĠCo": 3731,
            "Ġamount": 3732,
            "ĠState": 3733,
            "atter": 3734,
            "irm": 3735,
            "Ġtalked": 3736,
            "Ġaccom": 3737,
            "itary": 3738,
            "ĠSchool": 3739,
            "ĠAir": 3740,
            "ĠRob": 3741,
            "erve": 3742,
            "itions": 3743,
            "str": 3744,
            "ĠAfr": 3745,
            "ĠLord": 3746,
            "Ġinvest": 3747,
            "Ġcentury": 3748,
            "Ġmix": 3749,
            "ĠHelen": 3750,
            "elly": 3751,
            "Ġpocket": 3752,
            "Ġexcuse": 3753,
            "Ġdiscuss": 3754,
            "ALL": 3755,
            "Ġparts": 3756,
            "Ġturning": 3757,
            "Ġsurprise": 3758,
            "Ġbasket": 3759,
            "Ġviol": 3760,
            "Ġactor": 3761,
            "Listen": 3762,
            "Ġdate": 3763,
            "Ġstars": 3764,
            "Ġenc": 3765,
            "[S": 3766,
            "uge": 3767,
            "cks": 3768,
            "Ġspent": 3769,
            "ĠON": 3770,
            "Ġinterrupt": 3771,
            "za": 3772,
            "Ġsle": 3773,
            "Ġboo": 3774,
            "asc": 3775,
            "Ġprep": 3776,
            "ĠLeague": 3777,
            "dom": 3778,
            "uel": 3779,
            "Ġpounds": 3780,
            "Ġblank": 3781,
            "Ġris": 3782,
            "Ġspoon": 3783,
            "Me": 3784,
            "ipped": 3785,
            "inary": 3786,
            "Ġclosed": 3787,
            "Ġobs": 3788,
            "Cl": 3789,
            "arr": 3790,
            "Ġbackground": 3791,
            "Ġsky": 3792,
            "CE": 3793,
            "ka": 3794,
            "llust": 3795,
            "ĠFred": 3796,
            "Ġworse": 3797,
            "Ġmanner": 3798,
            "Ġkey": 3799,
            "Ġasking": 3800,
            "ĠAnne": 3801,
            "Ġsquare": 3802,
            "ĠJapanese": 3803,
            "face": 3804,
            "ĠMart": 3805,
            "ĠWith": 3806,
            "Ġdifference": 3807,
            "Ġcaused": 3808,
            "Mar": 3809,
            "pose": 3810,
            "Ġcouncil": 3811,
            "ato": 3812,
            "ural": 3813,
            "ival": 3814,
            "cher": 3815,
            "antly": 3816,
            "Ġalive": 3817,
            "Ġbelow": 3818,
            "Ġdirected": 3819,
            "Ġpromise": 3820,
            "ĠQue": 3821,
            "kin": 3822,
            "ustom": 3823,
            "ppy": 3824,
            "ĠOkay": 3825,
            "uckles": 3826,
            "Ġcourt": 3827,
            "+in": 3828,
            "+the": 3829,
            "chn": 3830,
            "Ġsettle": 3831,
            "aturday": 3832,
            "+box": 3833,
            "isf": 3834,
            "Ġfresh": 3835,
            "amund": 3836,
            "like": 3837,
            "Ġhol": 3838,
            "raph": 3839,
            "Ġden": 3840,
            "ament": 3841,
            "ĠWho": 3842,
            "Ġfinally": 3843,
            "bye": 3844,
            "Ġhiding": 3845,
            "ĠBro": 3846,
            "ĠRepubl": 3847,
            "lin": 3848,
            "ugg": 3849,
            "aven": 3850,
            "Ġtit": 3851,
            "Ġlion": 3852,
            "ably": 3853,
            "ously": 3854,
            "ĠMad": 3855,
            "Ġrespons": 3856,
            "Ġupstairs": 3857,
            "Ġcrowd": 3858,
            "IR": 3859,
            "WE": 3860,
            "rey": 3861,
            "Ġfle": 3862,
            "roat": 3863,
            "Ġconnect": 3864,
            "eneral": 3865,
            "'clock": 3866,
            "Gr": 3867,
            "Ġbeyond": 3868,
            "Ġasleep": 3869,
            "ansas": 3870,
            "Ġraised": 3871,
            "Give": 3872,
            "Ġstren": 3873,
            "Ġhelped": 3874,
            "Ġrefer": 3875,
            "Ġninet": 3876,
            "IGH": 3877,
            "ĠTexas": 3878,
            "*MA": 3879,
            "Ġpolicy": 3880,
            "bes": 3881,
            "Ġstage": 3882,
            "ems": 3883,
            "Ġhurry": 3884,
            "mit": 3885,
            "ett": 3886,
            "ruction": 3887,
            "upid": 3888,
            "Ġoppos": 3889,
            "Ġjoined": 3890,
            "vious": 3891,
            "Ġfool": 3892,
            "ushing": 3893,
            "ĠST": 3894,
            "Ġapple": 3895,
            "ighs": 3896,
            "Ġbrief": 3897,
            "Ġaff": 3898,
            "pend": 3899,
            "Ġmanage": 3900,
            "Ġcoat": 3901,
            "conom": 3902,
            "Ġdeter": 3903,
            "By": 3904,
            "asp": 3905,
            "._": 3906,
            "ki": 3907,
            "oming": 3908,
            "ĠIts": 3909,
            "Ġnaughty": 3910,
            "Per": 3911,
            "Ġspring": 3912,
            "hire": 3913,
            "Ġcovered": 3914,
            "Ġpenc": 3915,
            "ĠMus": 3916,
            "pping": 3917,
            "ij": 3918,
            "yer": 3919,
            "zen": 3920,
            "lla": 3921,
            "outhern": 3922,
            "Ġimmedi": 3923,
            "azing": 3924,
            "Ġcommunity": 3925,
            "*A": 3926,
            "ĠCharlie": 3927,
            "Ġwha": 3928,
            "Ġwhoops": 3929,
            "olf": 3930,
            "Ġmagnet": 3931,
            "ĠSer": 3932,
            "laughing": 3933,
            "Ġphot": 3934,
            "Ġdestroy": 3935,
            "eg": 3936,
            "pers": 3937,
            "Ġ&": 3938,
            "inct": 3939,
            "alt": 3940,
            "Ġpossib": 3941,
            ":\"Ċ": 3942,
            "aded": 3943,
            "Ġcrit": 3944,
            "Ġfre": 3945,
            "Ġthreat": 3946,
            "Ġlikely": 3947,
            "brother": 3948,
            "Ġinclude": 3949,
            "LY": 3950,
            "Ġprocess": 3951,
            "Ġintrod": 3952,
            "Ġagree": 3953,
            "ĠHowever": 3954,
            "ĠSunday": 3955,
            "Ġmeat": 3956,
            "Ġarrest": 3957,
            "ivil": 3958,
            "ĠTHAT": 3959,
            "[re": 3960,
            "Ġpal": 3961,
            "Ġnumbers": 3962,
            "LA": 3963,
            "ville": 3964,
            "worth": 3965,
            "Ġgate": 3966,
            "Ġgrew": 3967,
            "hal": 3968,
            "Ġrese": 3969,
            "Ġscared": 3970,
            "ids": 3971,
            "orthern": 3972,
            "Ġspeed": 3973,
            "Ġstreng": 3974,
            "af": 3975,
            "kn": 3976,
            "ittee": 3977,
            "Ġwest": 3978,
            "oughs": 3979,
            "oved": 3980,
            "Ġdriving": 3981,
            "-I": 3982,
            "Ġdrew": 3983,
            "Ġrace": 3984,
            "ĠSar": 3985,
            "ĠDist": 3986,
            "ago": 3987,
            "UN": 3988,
            "oly": 3989,
            "vocal": 3990,
            "ĠMat": 3991,
            "Ġsheep": 3992,
            "Ġfright": 3993,
            "ĠJones": 3994,
            "Ġthinks": 3995,
            "ĠPark": 3996,
            "Ġ]\\": 3997,
            "Ġfamous": 3998,
            "ĠGerva": 3999,
            "Ġpleasure": 4000,
            "Ġsandw": 4001,
            "wise": 4002,
            "Ġfem": 4003,
            "iment": 4004,
            "ĠCome": 4005,
            "Ġneedta": 4006,
            "Does": 4007,
            "VER": 4008,
            "yle": 4009,
            "Ġwake": 4010,
            "Ġcru": 4011,
            "lden": 4012,
            "chie": 4013,
            "Ġspeaking": 4014,
            "ĠPeggy": 4015,
            "othy": 4016,
            "Ġconv": 4017,
            "ashion": 4018,
            "Ġprovince": 4019,
            "Ġlines": 4020,
            "ĠHarry": 4021,
            "Ġbirds": 4022,
            "ĠGovern": 4023,
            "_NA": 4024,
            "itor": 4025,
            "Ġnur": 4026,
            "Ġrap": 4027,
            "ĠAc": 4028,
            "Nothing": 4029,
            "Ġtotal": 4030,
            "ĠBill": 4031,
            "ĠGl": 4032,
            "ĠGervaise": 4033,
            "Ġsens": 4034,
            "ĠDem": 4035,
            "Ġairport": 4036,
            "ĠIndians": 4037,
            "Ġnatural": 4038,
            "Would": 4039,
            "under": 4040,
            "Ġhero": 4041,
            "ortun": 4042,
            "Ġperform": 4043,
            "Ġmissing": 4044,
            "ĠGermany": 4045,
            "Somet": 4046,
            "Ġweap": 4047,
            "Ġelection": 4048,
            "Ġsleeping": 4049,
            "Ġcaptain": 4050,
            "Ġsatisf": 4051,
            "Ġbattle": 4052,
            "Fr": 4053,
            "Ġwa": 4054,
            "ingly": 4055,
            "Ġrough": 4056,
            "ĠFather": 4057,
            "Ġplane": 4058,
            "Ġcalling": 4059,
            "Ġswing": 4060,
            "Ġbroad": 4061,
            "set": 4062,
            "Ġur": 4063,
            "Ġflat": 4064,
            "cer": 4065,
            "field": 4066,
            "ivid": 4067,
            "obert": 4068,
            "Even": 4069,
            "light": 4070,
            "Ġtries": 4071,
            "OS": 4072,
            "ini": 4073,
            "rect": 4074,
            "erved": 4075,
            "HH": 4076,
            "enry": 4077,
            "Ġthrew": 4078,
            "Ġstream": 4079,
            "ĠSaturday": 4080,
            "Ġgrad": 4081,
            "cience": 4082,
            "Ġsimply": 4083,
            "Ġvarious": 4084,
            "reme": 4085,
            "ademy": 4086,
            "Ġident": 4087,
            "Ġoops": 4088,
            "vey": 4089,
            "Ġund": 4090,
            "ĠTur": 4091,
            "Ġattend": 4092,
            "Ġskin": 4093,
            "inosaur": 4094,
            "-g": 4095,
            "Ġinn": 4096,
            "Ġbeha": 4097,
            "Ġbell": 4098,
            "ĠColl": 4099,
            "Ġsett": 4100,
            "ĠQu": 4101,
            "Ġsize": 4102,
            "atic": 4103,
            "uses": 4104,
            "ĠEast": 4105,
            "Ġarrived": 4106,
            "ĠRosamund": 4107,
            "Mhm": 4108,
            "ests": 4109,
            "----------------": 4110,
            "antic": 4111,
            "ables": 4112,
            "Ġways": 4113,
            "ĠMarie": 4114,
            "Ġterms": 4115,
            "ĠAnge": 4116,
            "Ġsteps": 4117,
            "initely": 4118,
            "IF": 4119,
            "Ġfol": 4120,
            "Ġstories": 4121,
            "Ġanywhere": 4122,
            "Ġjoin": 4123,
            "Ġemb": 4124,
            "Ġstupid": 4125,
            "olm": 4126,
            "ongress": 4127,
            "rain": 4128,
            "ences": 4129,
            "Ġgoodness": 4130,
            "ĠSteve": 4131,
            "anny": 4132,
            "ĠCarl": 4133,
            "Ġneg": 4134,
            "berry": 4135,
            "ocol": 4136,
            "From": 4137,
            "Ġbuck": 4138,
            "asons": 4139,
            "aching": 4140,
            "Ġforth": 4141,
            "Ġformed": 4142,
            "Ġserved": 4143,
            "ĠChristian": 4144,
            "ĠChe": 4145,
            "Ġended": 4146,
            "ĠChampions": 4147,
            "Ġofficer": 4148,
            "ĠLoire": 4149,
            "asure": 4150,
            "Ġwheel": 4151,
            "ĠParty": 4152,
            "Ġmostly": 4153,
            "Ġlargest": 4154,
            "EC": 4155,
            "[I": 4156,
            "ĠBur": 4157,
            "Which": 4158,
            "kiss": 4159,
            "Ġtou": 4160,
            "ĠWind": 4161,
            "Ġoriginal": 4162,
            "Ġangry": 4163,
            "Ġwelcome": 4164,
            "ially": 4165,
            "Ġtower": 4166,
            "ĠLady": 4167,
            "Ġspread": 4168,
            "Ġpeace": 4169,
            "rer": 4170,
            "itude": 4171,
            "ĠSan": 4172,
            "ĠBat": 4173,
            "ularly": 4174,
            "Ġplaced": 4175,
            "*FRI": 4176,
            "epend": 4177,
            "Ġguard": 4178,
            "Ġstarting": 4179,
            "Ġhappening": 4180,
            "-day": 4181,
            "Ed": 4182,
            "Ġdressed": 4183,
            "Ġforty": 4184,
            "Ġrich": 4185,
            "stit": 4186,
            "Ġnotice": 4187,
            "Ġentered": 4188,
            "Ġstudy": 4189,
            "Ġsurprised": 4190,
            "burg": 4191,
            "Ġelephant": 4192,
            "Ġrose": 4193,
            "ĠMac": 4194,
            "These": 4195,
            "Ġsuff": 4196,
            "Ġrelations": 4197,
            "Ġmissed": 4198,
            "Bl": 4199,
            "Ġtax": 4200,
            "erland": 4201,
            "Ġbound": 4202,
            "Ġlaid": 4203,
            "ĠWhere": 4204,
            "Ġconside": 4205,
            "Ġconsidered": 4206,
            "Ġbite": 4207,
            "Ġdinosaur": 4208,
            "Ġonto": 4209,
            "Ġshad": 4210,
            "oom": 4211,
            "ĠIrene": 4212,
            "ĠGra": 4213,
            "Ġhardly": 4214,
            "Ġmarket": 4215,
            "Ġnineteen": 4216,
            "sy": 4217,
            "Qu": 4218,
            "ux": 4219,
            "ita": 4220,
            "ĠSch": 4221,
            "oph": 4222,
            "Ġcollege": 4223,
            "cast": 4224,
            "nis": 4225,
            "Ġpet": 4226,
            "ached": 4227,
            "Ġpray": 4228,
            "Ġninety": 4229,
            "ĠBradford": 4230,
            "Ġmer": 4231,
            "roll": 4232,
            "Ġshape": 4233,
            "order": 4234,
            "Ġloves": 4235,
            "-M": 4236,
            "Ġsevent": 4237,
            "Ġplate": 4238,
            "ĠNor": 4239,
            "Ġsharp": 4240,
            "Ġmachine": 4241,
            "Tr": 4242,
            "anch": 4243,
            "icious": 4244,
            "ĠOf": 4245,
            "ails": 4246,
            "Ġenv": 4247,
            "anced": 4248,
            "ĠLara": 4249,
            "Ġsimple": 4250,
            "KE": 4251,
            "Ġsupper": 4252,
            "Ġfinal": 4253,
            "ENT": 4254,
            "Ġinvolved": 4255,
            "Ġtone": 4256,
            "oring": 4257,
            "Ġlaug": 4258,
            "Ġjoy": 4259,
            "ĠFOR": 4260,
            "Ġtrad": 4261,
            "Ġclown": 4262,
            "ĠStreet": 4263,
            "*KAT": 4264,
            "Ġfilm": 4265,
            "Very": 4266,
            "Ġbomb": 4267,
            "edy": 4268,
            "ĠRed": 4269,
            "Ġunless": 4270,
            "ique": 4271,
            "Ġtight": 4272,
            "Ġyouth": 4273,
            "Ġtrick": 4274,
            "Ġemploy": 4275,
            "Sure": 4276,
            "Ġcult": 4277,
            "ĠIS": 4278,
            "âĢĻm": 4279,
            "ĠFrom": 4280,
            "non": 4281,
            "Ġchoo": 4282,
            "Ġcabin": 4283,
            "Ġearlier": 4284,
            "Ġlaughed": 4285,
            "ĠHigh": 4286,
            "Ġ()": 4287,
            "Ġfighting": 4288,
            "Ġladies": 4289,
            "Ġradio": 4290,
            "ergy": 4291,
            "ĠCouncil": 4292,
            "anda": 4293,
            "ours": 4294,
            "craft": 4295,
            "Ġaged": 4296,
            "Ġaction": 4297,
            "Ġbunny": 4298,
            "Ġlap": 4299,
            "Ġnet": 4300,
            "ION": 4301,
            "Two": 4302,
            "orough": 4303,
            "Ġtwice": 4304,
            "Ġcoach": 4305,
            "ï¿½ï¿½ï¿½ï¿½": 4306,
            "OP": 4307,
            "[M": 4308,
            "ĠME": 4309,
            "ĠCor": 4310,
            "ively": 4311,
            "Ġpleased": 4312,
            "Ġpencil": 4313,
            "of": 4314,
            "oma": 4315,
            "Ġknights": 4316,
            "ension": 4317,
            "Ġoccur": 4318,
            "Ġcomputer": 4319,
            "hin": 4320,
            "ĠAMY": 4321,
            "ĠHey": 4322,
            "Ġuhuh": 4323,
            "Ġcompletely": 4324,
            "itzerland": 4325,
            "History": 4326,
            "chan": 4327,
            "Ġham": 4328,
            "outs": 4329,
            "Excuse": 4330,
            "Br": 4331,
            "nw": 4332,
            "Ġmummy": 4333,
            "Ġpan": 4334,
            "ousin": 4335,
            "izes": 4336,
            "Ġfallen": 4337,
            "ointed": 4338,
            "OME": 4339,
            "uke": 4340,
            "arm": 4341,
            "Ġtherefore": 4342,
            "ĠRam": 4343,
            "*MU": 4344,
            "Ġdangerous": 4345,
            "Ġempty": 4346,
            "rim": 4347,
            "Ġreact": 4348,
            "Ġareas": 4349,
            "Ġbless": 4350,
            "ĠChic": 4351,
            "Ġfalling": 4352,
            "Ġannounced": 4353,
            "Pe": 4354,
            "ĠSwitzerland": 4355,
            "Ġconversation": 4356,
            "Ġsearch": 4357,
            "Ġphys": 4358,
            "Ġhigher": 4359,
            "orks": 4360,
            "ĠMother": 4361,
            "âĢĻre": 4362,
            "oken": 4363,
            "ba": 4364,
            "anish": 4365,
            "Ġpir": 4366,
            "Ġweather": 4367,
            "ĠOK": 4368,
            "Ġpuzzle": 4369,
            "Ġhouses": 4370,
            "father": 4371,
            "Ġthroat": 4372,
            "usion": 4373,
            "ĠDistrict": 4374,
            "Ġshirt": 4375,
            "ĠOk": 4376,
            "Ġactress": 4377,
            "Ġeasily": 4378,
            "hered": 4379,
            "Ġcell": 4380,
            "Ġdere": 4381,
            "iance": 4382,
            "Ġstrugg": 4383,
            "can": 4384,
            "gu": 4385,
            "pa": 4386,
            "sn": 4387,
            "Ġduty": 4388,
            "Ġrob": 4389,
            "Ġmoves": 4390,
            "Ġpolitical": 4391,
            "Ġmistake": 4392,
            "bre": 4393,
            "Ġta": 4394,
            "ether": 4395,
            "Ġshoe": 4396,
            "Ġclock": 4397,
            "ples": 4398,
            "Ġscene": 4399,
            "Ġeleven": 4400,
            "Ġmedic": 4401,
            "IM": 4402,
            "ĠJesus": 4403,
            "Ġscream": 4404,
            "Ġfifteen": 4405,
            "Ġescape": 4406,
            "just": 4407,
            "Ġwit": 4408,
            "Ġcrew": 4409,
            "Ġpath": 4410,
            "Ġsocial": 4411,
            "ĠLa": 4412,
            "Ġgrou": 4413,
            "Ġopportun": 4414,
            "Ġwinter": 4415,
            "Ġquarter": 4416,
            "Ġdeclared": 4417,
            "arrow": 4418,
            "ĠBra": 4419,
            "rib": 4420,
            "Ġchap": 4421,
            "*SS": 4422,
            "Ġfilled": 4423,
            "gged": 4424,
            "Ġexplain": 4425,
            "Ġlucky": 4426,
            "ĠAward": 4427,
            "Ġnote": 4428,
            "atherine": 4429,
            "Ġcolors": 4430,
            "Ġhonest": 4431,
            "ef": 4432,
            "reg": 4433,
            "Ġmoon": 4434,
            "ĠAlbert": 4435,
            "Ġflying": 4436,
            "Ġide": 4437,
            "Ġlearned": 4438,
            "Ġble": 4439,
            "Ġthick": 4440,
            "Ġrate": 4441,
            "ĠBer": 4442,
            "Ġallow": 4443,
            "eman": 4444,
            "ockey": 4445,
            "Ġchem": 4446,
            "Ġexcited": 4447,
            "Ġtemper": 4448,
            "inal": 4449,
            "ota": 4450,
            "Ġeconom": 4451,
            "Ġroof": 4452,
            "ungle": 4453,
            "Ġinflu": 4454,
            "*JO": 4455,
            "Ġnecessary": 4456,
            "Our": 4457,
            "Ġmir": 4458,
            "Ġgir": 4459,
            "Ġrow": 4460,
            "ocrat": 4461,
            "Ġsuit": 4462,
            "ensive": 4463,
            "Ġfellows": 4464,
            "Was": 4465,
            "ja": 4466,
            "Ã¼": 4467,
            "Ġnature": 4468,
            "lected": 4469,
            "Ġate": 4470,
            "Ġmentioned": 4471,
            "llustration": 4472,
            "line": 4473,
            "Ġmerc": 4474,
            "Ġpun": 4475,
            "ĠII": 4476,
            "ify": 4477,
            "Ġpersonal": 4478,
            "[C": 4479,
            "Ġdrug": 4480,
            "ĠPort": 4481,
            "Ġappl": 4482,
            "ĠUnion": 4483,
            "[Illustration": 4484,
            "Ġlem": 4485,
            "elest": 4486,
            "igs": 4487,
            "Ġsugar": 4488,
            "Ġwalks": 4489,
            "Ġpulled": 4490,
            "Ġpublished": 4491,
            "Ġestab": 4492,
            "'?\\": 4493,
            "Ġtong": 4494,
            "Ġtiny": 4495,
            "Ġap": 4496,
            "Ġnea": 4497,
            "ĠSant": 4498,
            "Ġplant": 4499,
            "ĠChris": 4500,
            "Ġaddress": 4501,
            "Ġepis": 4502,
            "Ġstrength": 4503,
            "van": 4504,
            "Ġnon": 4505,
            "ilver": 4506,
            "ĠJul": 4507,
            "ĠLittle": 4508,
            "Ġcloud": 4509,
            "Ġsinger": 4510,
            "aries": 4511,
            "Ġdoggie": 4512,
            "Ġlips": 4513,
            "Ġdeg": 4514,
            "Ġimm": 4515,
            "Ġmilitary": 4516,
            "Ġmamma": 4517,
            "Sir": 4518,
            "don": 4519,
            "Ġbill": 4520,
            "Ġeager": 4521,
            "Ġrelig": 4522,
            "Ġawful": 4523,
            "Ġpractice": 4524,
            "Ġrabbit": 4525,
            "IE": 4526,
            "Pl": 4527,
            "hem": 4528,
            "Ġkitty": 4529,
            "Ġenemy": 4530,
            "ĠCreek": 4531,
            "Ġoffer": 4532,
            "ĠChair": 4533,
            "Ġexpected": 4534,
            "Ġbeside": 4535,
            "Ġspirit": 4536,
            "Ġiron": 4537,
            "Ġsurface": 4538,
            "Mrs": 4539,
            ".,": 4540,
            "âĢĻve": 4541,
            "Ġdesk": 4542,
            "Ġdevelopment": 4543,
            "Ġswimming": 4544,
            "ening": 4545,
            "iel": 4546,
            "ĠJean": 4547,
            "Ġregular": 4548,
            "Ġdogs": 4549,
            "Ġdancing": 4550,
            "imit": 4551,
            "ĠHenry": 4552,
            "ĠGeneral": 4553,
            "Ġvan": 4554,
            "Ġgrab": 4555,
            "Ġproud": 4556,
            "Ġpercent": 4557,
            "ĠMinister": 4558,
            "Ġimmediately": 4559,
            "Ġoffe": 4560,
            "ucker": 4561,
            "Ġwatched": 4562,
            "ĠCarol": 4563,
            "Ġfaith": 4564,
            "ĠLouis": 4565,
            "pos": 4566,
            "urity": 4567,
            "Ġdeb": 4568,
            "bered": 4569,
            "Ġstands": 4570,
            "[point": 4571,
            "Ġtiger": 4572,
            "ators": 4573,
            "Ġhadn": 4574,
            "Ġchocol": 4575,
            "Ġcheer": 4576,
            "Ġsoul": 4577,
            "Ġstorm": 4578,
            "ola": 4579,
            "Ġwhoa": 4580,
            "Ġadvent": 4581,
            "Ġkeeping": 4582,
            "elebr": 4583,
            "EL": 4584,
            "arry": 4585,
            "Ġbutton": 4586,
            "elp": 4587,
            "Ġbrush": 4588,
            "Ġcalm": 4589,
            "Ġinj": 4590,
            "ĠTV": 4591,
            "ĠPre": 4592,
            "Ġshore": 4593,
            "Ġshoulder": 4594,
            "ĠInternational": 4595,
            "Could": 4596,
            "Ġbother": 4597,
            "Ġinqu": 4598,
            "oted": 4599,
            "lear": 4600,
            "eless": 4601,
            "Ġrights": 4602,
            "Ġusual": 4603,
            "Ġacqu": 4604,
            "Ġlights": 4605,
            "minist": 4606,
            "oid": 4607,
            "Ġcro": 4608,
            "arily": 4609,
            "Ġplain": 4610,
            "ĠBeck": 4611,
            "Ġwoods": 4612,
            "Ġoccasion": 4613,
            "Sp": 4614,
            "icle": 4615,
            "idden": 4616,
            "oos": 4617,
            "Ġ\\\"\\": 4618,
            "ciety": 4619,
            "Ġappre": 4620,
            "God": 4621,
            "Ġstone": 4622,
            "Ġnoticed": 4623,
            "Ġsail": 4624,
            "ĠLaw": 4625,
            "ression": 4626,
            "anche": 4627,
            "Ġpurpose": 4628,
            "alcolm": 4629,
            "omen": 4630,
            "Ġsaved": 4631,
            "ĠJenn": 4632,
            "obile": 4633,
            "Ġbedroom": 4634,
            "Ġmessage": 4635,
            "ari": 4636,
            "Ġtowns": 4637,
            "Ġearn": 4638,
            "Ġfault": 4639,
            "Ġaud": 4640,
            "nding": 4641,
            "Ġnap": 4642,
            "ĠAlf": 4643,
            "ĠDid": 4644,
            "hips": 4645,
            "Ġpromised": 4646,
            "Ġoccup": 4647,
            "Ġdefinitely": 4648,
            "known": 4649,
            "Ġgroups": 4650,
            "heart": 4651,
            "utch": 4652,
            "achel": 4653,
            "eech": 4654,
            "Ġimpro": 4655,
            "Ġmotion": 4656,
            "Ġmicro": 4657,
            "Ġfro": 4658,
            "ĠJo": 4659,
            ".âĢĻ\\": 4660,
            "Ġgrown": 4661,
            "ĠAustralia": 4662,
            "-B": 4663,
            "YOU": 4664,
            "icated": 4665,
            "Ġprim": 4666,
            "Ġtechn": 4667,
            "Ġsmoke": 4668,
            "Ġindust": 4669,
            "Ġfigures": 4670,
            "Ġabsolutely": 4671,
            "Ġprofessional": 4672,
            "-S": 4673,
            "Ġloss": 4674,
            "ĠMatt": 4675,
            "cely": 4676,
            "Ġremem": 4677,
            "-in": 4678,
            "Ġmater": 4679,
            "ĠBo": 4680,
            "Ġpeek": 4681,
            "Ġdirector": 4682,
            "eleste": 4683,
            "Ġmud": 4684,
            "Ġpool": 4685,
            "Ġnurs": 4686,
            "ĠCat": 4687,
            "ĠRobert": 4688,
            "Ġagreed": 4689,
            "actor": 4690,
            "Ġourselves": 4691,
            "Ġnormal": 4692,
            "Ġdeterm": 4693,
            "OD": 4694,
            "Ġyum": 4695,
            "pper": 4696,
            "Ġcontinues": 4697,
            "Ġstraw": 4698,
            "Pro": 4699,
            "WH": 4700,
            "Ġtap": 4701,
            "Ġstates": 4702,
            "Ġdownstairs": 4703,
            "Ġwearing": 4704,
            "Ġissue": 4705,
            "ĠDorothy": 4706,
            "Ġdig": 4707,
            "Ġfashion": 4708,
            "Ġexist": 4709,
            "Ġbegin": 4710,
            "Ġproduced": 4711,
            "range": 4712,
            "Ġcities": 4713,
            "oves": 4714,
            "Ġheads": 4715,
            "Ġstruck": 4716,
            "eer": 4717,
            "Ġcart": 4718,
            "nthe": 4719,
            "ucky": 4720,
            "Ġremain": 4721,
            "Ġevidence": 4722,
            "ĠDonald": 4723,
            "Ġmurder": 4724,
            "ĠAcademy": 4725,
            "-y": 4726,
            "Her": 4727,
            "Never": 4728,
            "Ġhuge": 4729,
            "Ġrail": 4730,
            "ĠSy": 4731,
            "Ġplenty": 4732,
            "ĠKore": 4733,
            "Ġenergy": 4734,
            "Ġindivid": 4735,
            "Ġhotel": 4736,
            "ĠBobby": 4737,
            "Ġexperience": 4738,
            "Ġgentleman": 4739,
            "Ġavail": 4740,
            "Ġremarked": 4741,
            "Ġutter": 4742,
            "Ġtaste": 4743,
            "New": 4744,
            "Re": 4745,
            "],": 4746,
            "Ġrevol": 4747,
            "ummer": 4748,
            "ĠFort": 4749,
            "Ġmeaning": 4750,
            "Ġsmart": 4751,
            "Ġcountries": 4752,
            "Ġlistening": 4753,
            "Ġguns": 4754,
            "orter": 4755,
            "Ġplans": 4756,
            "Ġcarefully": 4757,
            "UD": 4758,
            "house": 4759,
            "Ġlid": 4760,
            "Ġtells": 4761,
            "-Celeste": 4762,
            "Miss": 4763,
            "bell": 4764,
            "mie": 4765,
            "rated": 4766,
            "ooper": 4767,
            "ĠTony": 4768,
            "Ġjour": 4769,
            "ourt": 4770,
            "Ġleader": 4771,
            "cue": 4772,
            "Ġwan": 4773,
            "Ġdoc": 4774,
            "ĠBel": 4775,
            "ĠLem": 4776,
            "ĠEr": 4777,
            "Ġchoice": 4778,
            "Ġperfor": 4779,
            "Ġpurs": 4780,
            "Ġsongs": 4781,
            "aign": 4782,
            "irgin": 4783,
            "ĠMer": 4784,
            "ĠWH": 4785,
            "ĠEn": 4786,
            "iction": 4787,
            "ledge": 4788,
            "Ġattract": 4789,
            "-ha": 4790,
            "[a": 4791,
            "ram": 4792,
            "....": 4793,
            "Ġcoast": 4794,
            "ification": 4795,
            "ups": 4796,
            "Ġcards": 4797,
            "Ġtoast": 4798,
            "Ġjungle": 4799,
            "ĠRo": 4800,
            "osta": 4801,
            "Ġfeat": 4802,
            "Ġballs": 4803,
            "Ġmotor": 4804,
            "Ġsoldiers": 4805,
            "Ġchocolate": 4806,
            "Gu": 4807,
            "paper": 4808,
            "ossible": 4809,
            "Ġclimb": 4810,
            "ĠEllie": 4811,
            "John": 4812,
            "iest": 4813,
            "nie": 4814,
            "Ġcere": 4815,
            "vell": 4816,
            "ĠBab": 4817,
            "ĠGames": 4818,
            "osh": 4819,
            "ruct": 4820,
            "ĠFlor": 4821,
            "ĠSarah": 4822,
            "Ġremained": 4823,
            "Ġgenerally": 4824,
            "Ġhistor": 4825,
            "Ġgrave": 4826,
            "ooh": 4827,
            "ĠBu": 4828,
            "Ġdesp": 4829,
            "Ġassist": 4830,
            "Ġedge": 4831,
            "Ġimagine": 4832,
            "Ġtongue": 4833,
            "Aye": 4834,
            "Ne": 4835,
            "Ġfund": 4836,
            "uten": 4837,
            "ĠMor": 4838,
            "ĠHi": 4839,
            "ulf": 4840,
            "Ġtrunk": 4841,
            "Ġpaint": 4842,
            "*CAR": 4843,
            "Ġeducation": 4844,
            "Got": 4845,
            "UR": 4846,
            "ĠRE": 4847,
            "Ġtravel": 4848,
            "Ġmodern": 4849,
            "Ġcelebr": 4850,
            "Ġthou": 4851,
            "Ġweak": 4852,
            "illiant": 4853,
            "ĠRoman": 4854,
            "ords": 4855,
            "Ġtext": 4856,
            "Ġofficers": 4857,
            "Ġdread": 4858,
            "âĢľYou": 4859,
            "Ġblind": 4860,
            "Ġprivate": 4861,
            "*LL": 4862,
            "Ġwestern": 4863,
            "has": 4864,
            "Ġpill": 4865,
            "Ġstret": 4866,
            "ĠMont": 4867,
            "urt": 4868,
            "ooking": 4869,
            "ĠKitty": 4870,
            "Ġsits": 4871,
            "Ġclearly": 4872,
            "Ġperfectly": 4873,
            "*LLL": 4874,
            "gress": 4875,
            "itation": 4876,
            "Ġpa": 4877,
            "Ġwaste": 4878,
            "Ġproceed": 4879,
            "Ġperm": 4880,
            "nyou": 4881,
            "Ġsnake": 4882,
            "noise": 4883,
            "ishes": 4884,
            "Ġlog": 4885,
            "ĠChan": 4886,
            "ĠRem": 4887,
            "ĠBlack": 4888,
            "Ġfixed": 4889,
            "*RUS": 4890,
            "Ġbrave": 4891,
            "mother": 4892,
            "Ġtears": 4893,
            "ero": 4894,
            "nds": 4895,
            "ima": 4896,
            "Ġships": 4897,
            "ĠTheir": 4898,
            "inese": 4899,
            "Ġdiscovered": 4900,
            "ironment": 4901,
            "enny": 4902,
            "Ġemer": 4903,
            "Ġstairs": 4904,
            "ĠMel": 4905,
            "ĠSid": 4906,
            "osing": 4907,
            "ocks": 4908,
            "Ġdriver": 4909,
            "Ġproduc": 4910,
            "Ġrule": 4911,
            "IGHT": 4912,
            "kins": 4913,
            "Ġcustom": 4914,
            "Ġfirm": 4915,
            "otte": 4916,
            "ĠSen": 4917,
            "ĠDO": 4918,
            "Ġprice": 4919,
            "Ġscrew": 4920,
            "Ġmonster": 4921,
            "Ġbelieved": 4922,
            "Ġbrothers": 4923,
            "Ġdare": 4924,
            "ĠHam": 4925,
            "Ġvo": 4926,
            "Ġyounger": 4927,
            "Ġtrip": 4928,
            "ĠPlay": 4929,
            "Ġversion": 4930,
            "-A": 4931,
            "Cos": 4932,
            "Ġhill": 4933,
            "vere": 4934,
            "ĠMany": 4935,
            "ura": 4936,
            "Ġknife": 4937,
            "Ġneither": 4938,
            "Ġspoken": 4939,
            "Ġcontract": 4940,
            "Ġseconds": 4941,
            "Only": 4942,
            "Ġopposite": 4943,
            "rees": 4944,
            "chuckles": 4945,
            "ĠBert": 4946,
            "Ġcraw": 4947,
            "Com": 4948,
            "icy": 4949,
            "ushes": 4950,
            "ĠCr": 4951,
            "ĠWAS": 4952,
            "ĠProv": 4953,
            "Ġnurse": 4954,
            "AVE": 4955,
            "Ġdun": 4956,
            "Ġcircum": 4957,
            "Ġdemand": 4958,
            "gain": 4959,
            "iber": 4960,
            "Ġsides": 4961,
            "Ġfaces": 4962,
            "asy": 4963,
            "ĠTwo": 4964,
            "Ġsake": 4965,
            "Ġprint": 4966,
            "Ġcalls": 4967,
            "Ġsurv": 4968,
            "cellent": 4969,
            "sych": 4970,
            "oons": 4971,
            "Ġwoof": 4972,
            "Ġnomin": 4973,
            "Ġunc": 4974,
            "Ġteach": 4975,
            "Ġkinda": 4976,
            "Ġruns": 4977,
            "Ġhonor": 4978,
            "[l": 4979,
            "rid": 4980,
            "Ġtun": 4981,
            "Ġtaught": 4982,
            "Ġheat": 4983,
            "Ġshown": 4984,
            "ictor": 4985,
            "ilda": 4986,
            "Ġairpl": 4987,
            "coughs": 4988,
            "zes": 4989,
            "Ġwed": 4990,
            "Ġweight": 4991,
            "Ġworried": 4992,
            "Ġbrain": 4993,
            "Ġarrow": 4994,
            "Ġafterwards": 4995,
            "Ġchoose": 4996,
            "oking": 4997,
            "Ġsandwich": 4998,
            "Ġopportunity": 4999,
            "hest": 5000,
            "using": 5001,
            "ĠPil": 5002,
            "istic": 5003,
            "Ġflower": 5004,
            "Ġenter": 5005,
            "Ġdecision": 5006,
            "Ġproduct": 5007,
            "IL": 5008,
            "ĠCH": 5009,
            "udd": 5010,
            "Ġlawyer": 5011,
            "Ġmodel": 5012,
            "ios": 5013,
            "iring": 5014,
            "ĠCharles": 5015,
            "Ġmountain": 5016,
            "ĠItalian": 5017,
            "Ġpin": 5018,
            "ĠMid": 5019,
            "Ġfounded": 5020,
            "ebye": 5021,
            "Ġproperly": 5022,
            "Ġanxious": 5023,
            "Ġwrest": 5024,
            "Ġho": 5025,
            "ĠMalcolm": 5026,
            "Ġhelping": 5027,
            "Ġant": 5028,
            "raw": 5029,
            "ĠHere": 5030,
            "Ġaddition": 5031,
            "Ġpleasant": 5032,
            "ĠEuropean": 5033,
            "Ġign": 5034,
            "Ġdouble": 5035,
            "ĠMed": 5036,
            "ĠGold": 5037,
            "Ġsurr": 5038,
            "Am": 5039,
            "Keep": 5040,
            "Sha": 5041,
            "Ġpants": 5042,
            "ĠMot": 5043,
            "ĠMinn": 5044,
            "Ġbathroom": 5045,
            "Ġnorthwest": 5046,
            "Ġtv": 5047,
            "Ġox": 5048,
            "lend": 5049,
            "ĠGO": 5050,
            "Ġgrandma": 5051,
            "ĠScott": 5052,
            "acks": 5053,
            "Ġcentre": 5054,
            "Ġincluded": 5055,
            "Ġjourney": 5056,
            "TO": 5057,
            "gl": 5058,
            "ners": 5059,
            "Ġchat": 5060,
            "Ġlower": 5061,
            "ĠCass": 5062,
            "ĠNe": 5063,
            "Ġcomment": 5064,
            "Ġaccording": 5065,
            "Ġforest": 5066,
            "Ġharm": 5067,
            "da": 5068,
            "hod": 5069,
            "istan": 5070,
            "Ġspeech": 5071,
            "Ġcontact": 5072,
            "Ġopening": 5073,
            "Ġmagaz": 5074,
            "icate": 5075,
            "Ġreck": 5076,
            "ĠNat": 5077,
            "aked": 5078,
            "Ġprepared": 5079,
            "ĠMartin": 5080,
            "Perhaps": 5081,
            "ares": 5082,
            "Ġvote": 5083,
            "fection": 5084,
            "Ġshake": 5085,
            "izing": 5086,
            "chard": 5087,
            "arently": 5088,
            "Ġeffort": 5089,
            "Ġ#": 5090,
            "Ġmut": 5091,
            "\\\".\"Ċ": 5092,
            "Ġgrowing": 5093,
            "Ġmarry": 5094,
            "Ġeighty": 5095,
            "Ġservices": 5096,
            "dam": 5097,
            "pany": 5098,
            "Ġtar": 5099,
            "Ġce": 5100,
            "Ġpound": 5101,
            "ache": 5102,
            "ĠWil": 5103,
            "Ġbrilliant": 5104,
            "cip": 5105,
            "ĠChurch": 5106,
            "Ġevident": 5107,
            "Ġbudget": 5108,
            "*CH": 5109,
            "-up": 5110,
            "First": 5111,
            "do": 5112,
            "Ġrange": 5113,
            "aboo": 5114,
            "onday": 5115,
            "Ġobviously": 5116,
            "ĠThank": 5117,
            "Ġsoup": 5118,
            "ona": 5119,
            "Ġforces": 5120,
            "ĠMic": 5121,
            "ĠTed": 5122,
            "ĠGab": 5123,
            "ĠNav": 5124,
            "ĠYour": 5125,
            "Ġshower": 5126,
            "Ġfalls": 5127,
            "ĠSpanish": 5128,
            "aura": 5129,
            "Ġwalls": 5130,
            "GE": 5131,
            "ores": 5132,
            "angle": 5133,
            "ĠMarg": 5134,
            "ĠWarren": 5135,
            "Ġstructure": 5136,
            "oured": 5137,
            "enne": 5138,
            "ĠAct": 5139,
            "oday": 5140,
            "âĢĻd": 5141,
            "ograph": 5142,
            "Ġfavour": 5143,
            "Ġfairly": 5144,
            "ĠDoctor": 5145,
            "Ġparticularly": 5146,
            "ĠQueen": 5147,
            "-n": 5148,
            "ĠCatherine": 5149,
            "ĠPays": 5150,
            "Ġdepend": 5151,
            "Ġquality": 5152,
            "Ġbringing": 5153,
            "iggles": 5154,
            "Ġcomfortable": 5155,
            "ĠSmith": 5156,
            "Ġmedicine": 5157,
            "ĠChairman": 5158,
            "Ġsis": 5159,
            "Ġsour": 5160,
            "Ġcivil": 5161,
            "eds": 5162,
            "see": 5163,
            "Ġexec": 5164,
            "Ġpapers": 5165,
            "Ġimpossible": 5166,
            "ocratic": 5167,
            "-st": 5168,
            "Bomba": 5169,
            "UK": 5170,
            "pet": 5171,
            "Ġbyebye": 5172,
            "thew": 5173,
            "Ġindepend": 5174,
            "Ġcontinue": 5175,
            "Ġtelephone": 5176,
            "Ġsusp": 5177,
            "LES": 5178,
            "Ġir": 5179,
            "Ġgro": 5180,
            "ĠWE": 5181,
            "Ġschools": 5182,
            "Ġeasier": 5183,
            "ĠGuy": 5184,
            "Ġcorrect": 5185,
            "Ġvictim": 5186,
            ",âĢĻ": 5187,
            "jo": 5188,
            "Ġtie": 5189,
            "ĠMil": 5190,
            "abr": 5191,
            "ĠRand": 5192,
            "pering": 5193,
            "ITH": 5194,
            "Ġcampaign": 5195,
            "Ġconcerned": 5196,
            "Gl": 5197,
            "Ãº": 5198,
            "Ġoil": 5199,
            "Ġcases": 5200,
            "ication": 5201,
            "Ġbeach": 5202,
            "aly": 5203,
            "urb": 5204,
            "Ġknees": 5205,
            "Ġneat": 5206,
            "Ġsomewhat": 5207,
            "Ġwilling": 5208,
            "Ġstayed": 5209,
            "ĠChild": 5210,
            "Ġhunting": 5211,
            "Ġfold": 5212,
            "ching": 5213,
            "Ġmanaged": 5214,
            "appy": 5215,
            "Ġpainting": 5216,
            "ĠReg": 5217,
            "Ġreaches": 5218,
            "ĠGeorg": 5219,
            "Ġwagon": 5220,
            "**": 5221,
            "Ooh": 5222,
            "she": 5223,
            "Ġstyle": 5224,
            "Ġknowing": 5225,
            "berg": 5226,
            "Ġcheek": 5227,
            "Ġinvestig": 5228,
            "Ġsettled": 5229,
            "Ġliter": 5230,
            "Ġeld": 5231,
            "ĠDar": 5232,
            "ooth": 5233,
            "ĠChina": 5234,
            "Ġcondition": 5235,
            "Ġdoors": 5236,
            "Ġcanton": 5237,
            "apa": 5238,
            "Ġslide": 5239,
            "ĠFriday": 5240,
            "Ġsmaller": 5241,
            "ĠCanada": 5242,
            "Ġlocated": 5243,
            "Ġrisk": 5244,
            "Great": 5245,
            "IA": 5246,
            "rot": 5247,
            "Ġscient": 5248,
            "Ġmult": 5249,
            "ĠSing": 5250,
            "ĠBern": 5251,
            "Ġcancer": 5252,
            "umber": 5253,
            "Ġsuc": 5254,
            "Ġvac": 5255,
            "ĠKat": 5256,
            "ĠStone": 5257,
            "arliam": 5258,
            "Ġcenter": 5259,
            "Ġfemale": 5260,
            "onse": 5261,
            "edd": 5262,
            "aches": 5263,
            "eaks": 5264,
            "ĠDep": 5265,
            "Ġclaim": 5266,
            "Ġsucceed": 5267,
            "-L": 5268,
            "mn": 5269,
            "Ġtid": 5270,
            "essel": 5271,
            "Ġlatter": 5272,
            "ĠMost": 5273,
            "Ġslaves": 5274,
            "Ġobjects": 5275,
            "Ġpony": 5276,
            "Ġthus": 5277,
            "ĠHE": 5278,
            "this": 5279,
            "Ġworst": 5280,
            "ounce": 5281,
            "Ġmovement": 5282,
            "Ġdrinking": 5283,
            "Ġtickle": 5284,
            "Ġcloser": 5285,
            "(S": 5286,
            "nic": 5287,
            "itched": 5288,
            "Ġdozen": 5289,
            "Ġstaff": 5290,
            "Ġknee": 5291,
            "Ġaffect": 5292,
            "Ġfinding": 5293,
            "Ġballoon": 5294,
            "Ġmagic": 5295,
            "ĠFlorida": 5296,
            "'am": 5297,
            "Che": 5298,
            "gn": 5299,
            "Ġtask": 5300,
            "aning": 5301,
            "Ġprevious": 5302,
            "Ġbits": 5303,
            "Ġdistribut": 5304,
            "Ġcolonel": 5305,
            "Ġretired": 5306,
            "Ġmurd": 5307,
            "Ġpossibly": 5308,
            "Ġbub": 5309,
            "ĠSea": 5310,
            "ĠFoot": 5311,
            "Ġprefer": 5312,
            "Ġopin": 5313,
            "Ġbegins": 5314,
            "Ġwindows": 5315,
            "Ġcastle": 5316,
            "Ġbenef": 5317,
            "Ġresearch": 5318,
            "ule": 5319,
            "atoes": 5320,
            "Ġrout": 5321,
            "ented": 5322,
            "ĠAN": 5323,
            "allas": 5324,
            "ĠOrd": 5325,
            "Ġchanges": 5326,
            "Ġfeels": 5327,
            "Ġsquee": 5328,
            "Ġtitle": 5329,
            "arliament": 5330,
            "Poss": 5331,
            "Tw": 5332,
            "isher": 5333,
            "tering": 5334,
            "ĠBig": 5335,
            "ĠOld": 5336,
            "Ġcrime": 5337,
            "Ġofficial": 5338,
            "Ġsuspect": 5339,
            "Ġrules": 5340,
            "Wow": 5341,
            "spect": 5342,
            "Åį": 5343,
            "Ġboss": 5344,
            "Ġstock": 5345,
            "ĠMolly": 5346,
            "ulated": 5347,
            "Ġpoet": 5348,
            "Ġstaying": 5349,
            "ĠWhite": 5350,
            "Ġrapid": 5351,
            "Ġcircumst": 5352,
            "Um": 5353,
            "host": 5354,
            "isa": 5355,
            "imate": 5356,
            "\\nand": 5357,
            "ĠRy": 5358,
            "ĠRol": 5359,
            "Ġprevent": 5360,
            "Ġdeveloped": 5361,
            "Ġstatement": 5362,
            "Ġevents": 5363,
            "ĠParis": 5364,
            "ederal": 5365,
            "*SSS": 5366,
            "BC": 5367,
            "bon": 5368,
            "Ġtoes": 5369,
            "Ġpair": 5370,
            "Ġfruit": 5371,
            "Ġplayers": 5372,
            "ĠVirgin": 5373,
            "Ġobl": 5374,
            "Ġaircraft": 5375,
            "Ġrocks": 5376,
            "Ġappearance": 5377,
            "Ġrepeated": 5378,
            "-night": 5379,
            "cy": 5380,
            "Ã¨": 5381,
            "Ġodd": 5382,
            "anning": 5383,
            "Ġge": 5384,
            "sequ": 5385,
            "ĠPal": 5386,
            "Ġflag": 5387,
            "Ġwhispered": 5388,
            "ashington": 5389,
            "ĠSecret": 5390,
            "Bye": 5391,
            "_UK": 5392,
            "rate": 5393,
            "with": 5394,
            "asing": 5395,
            "Ġdoin": 5396,
            "ĠTucker": 5397,
            "ĠPak": 5398,
            "ĠGreen": 5399,
            "Ġordered": 5400,
            "!âĢĿ\\": 5401,
            "-room": 5402,
            "Hold": 5403,
            "ae": 5404,
            "Ġaver": 5405,
            "Ġmail": 5406,
            "Ġforced": 5407,
            "ental": 5408,
            "ĠTy": 5409,
            "icked": 5410,
            "Ġleading": 5411,
            "De": 5412,
            "Say": 5413,
            "fess": 5414,
            "Ġbal": 5415,
            "Ġmeal": 5416,
            "Ġwhist": 5417,
            "uman": 5418,
            "Ġsposta": 5419,
            "Ġtroops": 5420,
            "âĢľâĢĺ": 5421,
            "Ġbloody": 5422,
            "DS": 5423,
            "tles": 5424,
            "wr": 5425,
            "Ġ...\\": 5426,
            "Ġfishing": 5427,
            "ena": 5428,
            "aling": 5429,
            "Ġancient": 5430,
            "ifle": 5431,
            "Ġmanager": 5432,
            "Ġwriter": 5433,
            "Ġremind": 5434,
            "Ġscrat": 5435,
            "Ġresol": 5436,
            "Ġcarrying": 5437,
            "Ġslightly": 5438,
            "ĠMexico": 5439,
            "Ġblanket": 5440,
            "ĠBecky": 5441,
            "ua": 5442,
            "iti": 5443,
            "atory": 5444,
            "icans": 5445,
            "stood": 5446,
            "adder": 5447,
            "ĠAsian": 5448,
            "Ġcrayons": 5449,
            "Ġscarcely": 5450,
            "ĠLucy": 5451,
            "Ġenvironment": 5452,
            "[d": 5453,
            "lah": 5454,
            "Ġaward": 5455,
            "illed": 5456,
            "ria": 5457,
            "ishment": 5458,
            "aws": 5459,
            "Ġteams": 5460,
            "Ġsigned": 5461,
            "silver": 5462,
            "Ġtour": 5463,
            "Ġfoc": 5464,
            "enth": 5465,
            "cean": 5466,
            "ĠPet": 5467,
            "ĠLos": 5468,
            "Ġcrash": 5469,
            "Ġkeeps": 5470,
            "Ġappreci": 5471,
            "Ġavailable": 5472,
            "Fuck": 5473,
            "ker": 5474,
            "ĠSl": 5475,
            "Ġbutt": 5476,
            "Ġelected": 5477,
            "Ġsixty": 5478,
            "Ġsuccessful": 5479,
            "Ġcopy": 5480,
            "Tom": 5481,
            "aled": 5482,
            "ĠUrs": 5483,
            "ĠStan": 5484,
            "Ġpulls": 5485,
            "Ġexcit": 5486,
            "ĠPeople": 5487,
            "Ġsoftly": 5488,
            "ĠRussian": 5489,
            "Ġbi": 5490,
            "Ġcute": 5491,
            "Ġpour": 5492,
            "Ġpsych": 5493,
            "Ġstro": 5494,
            "Ġalt": 5495,
            "Ġacting": 5496,
            "Ġknocked": 5497,
            "Ġholiday": 5498,
            "ĠJennie": 5499,
            "uf": 5500,
            "Ġstre": 5501,
            "ĠSim": 5502,
            "ilian": 5503,
            "Ġknowledge": 5504,
            "ulous": 5505,
            "ĠEvery": 5506,
            "Ġvessel": 5507,
            "fortun": 5508,
            "Ġairplane": 5509,
            "bits": 5510,
            "otion": 5511,
            "ĠMY": 5512,
            "ĠAh": 5513,
            "Ġexcellent": 5514,
            "bey": 5515,
            "ĠChinese": 5516,
            "Ġtraining": 5517,
            "ĠRoyal": 5518,
            "utenant": 5519,
            "fa": 5520,
            "Ġfancy": 5521,
            "Ġpow": 5522,
            "Ġheaven": 5523,
            "ĠHy": 5524,
            "Ġtrade": 5525,
            "Ġotherwise": 5526,
            "Ġsilent": 5527,
            "iety": 5528,
            "sighs": 5529,
            "vi": 5530,
            "Ġplants": 5531,
            "aving": 5532,
            "Ġdragon": 5533,
            "Ġdecide": 5534,
            "Ġforgotten": 5535,
            "Ġdetermined": 5536,
            "Man": 5537,
            "[.": 5538,
            "die": 5539,
            "Ġbike": 5540,
            "Ġfought": 5541,
            "Ġrom": 5542,
            "ĠSummer": 5543,
            "ĠCrom": 5544,
            "Ġassoci": 5545,
            "ella": 5546,
            "ĠRog": 5547,
            "Ġafford": 5548,
            "Ġthrowing": 5549,
            "tained": 5550,
            "Ġrealize": 5551,
            "Ġgently": 5552,
            "ĠMike": 5553,
            "rost": 5554,
            "Ġclap": 5555,
            "Ġamazing": 5556,
            "Ġdolls": 5557,
            "Ġsuggested": 5558,
            "Ġetc": 5559,
            "aa": 5560,
            "mar": 5561,
            "Ġbare": 5562,
            "Ġdise": 5563,
            "ĠAlden": 5564,
            "Ġjigs": 5565,
            "ĠJew": 5566,
            "Ġuses": 5567,
            "âĢľYes": 5568,
            "Ġextreme": 5569,
            "Ġhanging": 5570,
            "gen": 5571,
            "Ġcred": 5572,
            "Ġhomes": 5573,
            "etch": 5574,
            "ĠSand": 5575,
            "Ġgoal": 5576,
            "Ġpresence": 5577,
            "Ġburst": 5578,
            "ĠCanad": 5579,
            "Ġorders": 5580,
            "Ġmemory": 5581,
            "ĠCollege": 5582,
            "uns": 5583,
            "Ġtractor": 5584,
            "Ġrelated": 5585,
            "ĠGerald": 5586,
            "Con": 5587,
            "Ġfond": 5588,
            "Ġsaf": 5589,
            "ĠLab": 5590,
            "ĠFranc": 5591,
            "Ġfeelings": 5592,
            "Ġstops": 5593,
            "Ġresponse": 5594,
            "Ġoffered": 5595,
            "Ġthee": 5596,
            "Ġder": 5597,
            "Ġlake": 5598,
            "ado": 5599,
            "Ġrat": 5600,
            "Ġarrange": 5601,
            "ĠKe": 5602,
            "place": 5603,
            "ultan": 5604,
            "Ġshopping": 5605,
            "Ġrelationship": 5606,
            "ĠChicago": 5607,
            "hab": 5608,
            "Ġbin": 5609,
            "ĠAT": 5610,
            "Ġupset": 5611,
            "uments": 5612,
            "action": 5613,
            "Ġthrown": 5614,
            "Ġturtle": 5615,
            "Ġpalace": 5616,
            "About": 5617,
            "pan": 5618,
            "Ġmate": 5619,
            "umn": 5620,
            "Ġbarn": 5621,
            "UST": 5622,
            "People": 5623,
            "Le": 5624,
            "Ġyay": 5625,
            "Ġgang": 5626,
            "Ġrelease": 5627,
            "ĠAwww": 5628,
            "Ġdebut": 5629,
            "ols": 5630,
            "olars": 5631,
            "Ġsports": 5632,
            "ccording": 5633,
            "Ġkinds": 5634,
            "Ġaware": 5635,
            "Ġrespond": 5636,
            "$=": 5637,
            "Ġpred": 5638,
            "ĠMur": 5639,
            "ĠMore": 5640,
            "ĠMonday": 5641,
            "ĠLat": 5642,
            "âĢľIt": 5643,
            "izza": 5644,
            "ESS": 5645,
            "Ġrequire": 5646,
            "Ġrecognized": 5647,
            "gent": 5648,
            "ila": 5649,
            "ĠDay": 5650,
            "Ġgreatest": 5651,
            "Ġdolly": 5652,
            "Ġmagn": 5653,
            "Ġgovernor": 5654,
            "Ġmicrophone": 5655,
            "lahoma": 5656,
            "Mom": 5657,
            "eff": 5658,
            "fly": 5659,
            "isions": 5660,
            "Ġsees": 5661,
            "Ġsocks": 5662,
            "ĠDick": 5663,
            "ĠJer": 5664,
            "ĠJess": 5665,
            "eping": 5666,
            "Ġshoulders": 5667,
            "Ġflight": 5668,
            "Ġeighteen": 5669,
            "ajest": 5670,
            "ĠColonel": 5671,
            "ĠOlympics": 5672,
            "EE": 5673,
            "ĠWashington": 5674,
            "ĠFenn": 5675,
            "Ġstranger": 5676,
            "Ġfrogs": 5677,
            "Since": 5678,
            "[$=": 5679,
            "Ġaye": 5680,
            "Ġnarrow": 5681,
            "ĠMo": 5682,
            "urry": 5683,
            "ulations": 5684,
            "Ġexerc": 5685,
            "Ġpartner": 5686,
            "Ġthoughts": 5687,
            "Before": 5688,
            "Ġquietly": 5689,
            "Ġnursery": 5690,
            "Ġexcitement": 5691,
            "Se": 5692,
            "Ġfox": 5693,
            "ĠBest": 5694,
            "ĠArk": 5695,
            "Ġvalue": 5696,
            "Dr": 5697,
            "ga": 5698,
            "nit": 5699,
            "Ġfurn": 5700,
            "Ġnorthern": 5701,
            "ĠMount": 5702,
            "elle": 5703,
            "ĠDuring": 5704,
            "Ġdeck": 5705,
            "Ġeverywhere": 5706,
            "ĠVictor": 5707,
            "Ġshowing": 5708,
            "ĠArab": 5709,
            "Ġlarger": 5710,
            "ĠSpain": 5711,
            "ĠCharlotte": 5712,
            "ILL": 5713,
            "pen": 5714,
            "Ġyummy": 5715,
            "Ġmor": 5716,
            "ingu": 5717,
            "inger": 5718,
            "ata": 5719,
            "ĠCamp": 5720,
            "Ġnovel": 5721,
            "ĠDiv": 5722,
            "Ġfourth": 5723,
            "Ġmatters": 5724,
            "ONE": 5725,
            "Ġpatient": 5726,
            "Ġremembered": 5727,
            "EA": 5728,
            "Ġfully": 5729,
            "ĠIll": 5730,
            "ĠBoy": 5731,
            "inky": 5732,
            "soft": 5733,
            "ogether": 5734,
            "Ġwaited": 5735,
            "ĠOklahoma": 5736,
            "ĠOrder": 5737,
            "ds": 5738,
            "Ġsite": 5739,
            "ora": 5740,
            "ĠSus": 5741,
            "Ġextend": 5742,
            "Ġterr": 5743,
            "Ġneighbor": 5744,
            "._\\": 5745,
            ".'": 5746,
            "ias": 5747,
            "rick": 5748,
            "Ġweird": 5749,
            "Ġshr": 5750,
            "Ġdrama": 5751,
            "mend": 5752,
            "Ġwitness": 5753,
            "sp": 5754,
            "Ġachie": 5755,
            "ĠAwards": 5756,
            "ĠHay": 5757,
            "ĠPolly": 5758,
            "Ġ(;": 5759,
            "Ġprepar": 5760,
            "Ġsmiling": 5761,
            "Ġzoo": 5762,
            "Ġescap": 5763,
            "Ġdetect": 5764,
            "Ġfrightened": 5765,
            "Act": 5766,
            "Put": 5767,
            "Rem": 5768,
            "ko": 5769,
            "Ġsch": 5770,
            "hah": 5771,
            "Ġpushed": 5772,
            "Ġprogress": 5773,
            "Ġadminist": 5774,
            "Ġscreen": 5775,
            "Ġjudge": 5776,
            "ilities": 5777,
            "igan": 5778,
            "Ġcourage": 5779,
            "Ġtrail": 5780,
            "Ġcompanion": 5781,
            "Ġwipe": 5782,
            "annah": 5783,
            "Ġstudied": 5784,
            "Ġbatter": 5785,
            "Ġburied": 5786,
            "ĠMatthew": 5787,
            "Ġpeekaboo": 5788,
            "Jack": 5789,
            "Ġwave": 5790,
            "Ġcousin": 5791,
            "Ġmo": 5792,
            "Ġdying": 5793,
            "ano": 5794,
            "Ġstir": 5795,
            "cel": 5796,
            "actually": 5797,
            "Ġserve": 5798,
            "Ġfarmer": 5799,
            "ERS": 5800,
            "chair": 5801,
            "apping": 5802,
            "Ġexplained": 5803,
            "ĠAngeles": 5804,
            "Ġsac": 5805,
            "Ġsink": 5806,
            "Ġriding": 5807,
            "Ġstom": 5808,
            "ĠTown": 5809,
            "Ġmere": 5810,
            "ĠAnt": 5811,
            "Ġopens": 5812,
            "ĠBecause": 5813,
            "Ġdata": 5814,
            "ĠScot": 5815,
            "Ġestabl": 5816,
            "',": 5817,
            "Char": 5818,
            "lor": 5819,
            "ĠPost": 5820,
            "ĠDel": 5821,
            "ĠOx": 5822,
            "azy": 5823,
            "Ġinstant": 5824,
            "Ġpowerful": 5825,
            "Ġdirectly": 5826,
            "ĠCromer": 5827,
            "ials": 5828,
            "icles": 5829,
            "chief": 5830,
            "Ġplat": 5831,
            "ateg": 5832,
            "Ġdisp": 5833,
            "Ġchew": 5834,
            "awa": 5835,
            "Ġpassing": 5836,
            "ĠAirport": 5837,
            "NOW": 5838,
            "bow": 5839,
            "fall": 5840,
            "ients": 5841,
            "Ã¤": 5842,
            "Ġyo": 5843,
            "Ġfile": 5844,
            "ĠBay": 5845,
            "ĠHaw": 5846,
            "Ġbug": 5847,
            "*KAR": 5848,
            "Isn": 5849,
            "Alright": 5850,
            "Ġgift": 5851,
            "ĠIr": 5852,
            "Ġ[?": 5853,
            "ĠLee": 5854,
            "ANT": 5855,
            "Ġgreater": 5856,
            "lands": 5857,
            "Ġreply": 5858,
            "Ġsentence": 5859,
            "Ġbaseball": 5860,
            "Ġcooking": 5861,
            "Ġwedding": 5862,
            "ault": 5863,
            "Ġtim": 5864,
            "Ġpra": 5865,
            "Ġroles": 5866,
            "ĠAbe": 5867,
            "ĠCO": 5868,
            "Ġqual": 5869,
            "uclear": 5870,
            "Ġentertain": 5871,
            "Ġplanning": 5872,
            "inois": 5873,
            "Ġsafety": 5874,
            "CT": 5875,
            "mund": 5876,
            "ĠâĻª": 5877,
            "Ġmouse": 5878,
            "semb": 5879,
            "ĠJud": 5880,
            "ĠEven": 5881,
            "Ġbod": 5882,
            "Ġflo": 5883,
            "Ġcontr": 5884,
            "Ġrecently": 5885,
            "Ġmission": 5886,
            "III": 5887,
            "Ġconstruction": 5888,
            "Ġbowl": 5889,
            "ĠGovernor": 5890,
            "ship": 5891,
            "uous": 5892,
            "rec": 5893,
            "sec": 5894,
            "urance": 5895,
            "olic": 5896,
            "venue": 5897,
            "Ġpeas": 5898,
            "Ġbecoming": 5899,
            "ibility": 5900,
            "ĠCla": 5901,
            "Ġincludes": 5902,
            "Ġprize": 5903,
            "ĠAfrica": 5904,
            "ĠRepublic": 5905,
            "ĠSanta": 5906,
            "ĠVirginia": 5907,
            "Ġaverage": 5908,
            "rant": 5909,
            "road": 5910,
            "ĠLaura": 5911,
            "Ġepisode": 5912,
            "Ġreckon": 5913,
            "Ġopinion": 5914,
            "astern": 5915,
            "ĠMos": 5916,
            "alley": 5917,
            "ĠBet": 5918,
            "ooks": 5919,
            "Ġadvant": 5920,
            "Ġrecognize": 5921,
            "Possum": 5922,
            "cul": 5923,
            "Ġbump": 5924,
            "Ġrings": 5925,
            "aming": 5926,
            "ĠDallas": 5927,
            "Ġplastic": 5928,
            "ĠLake": 5929,
            "Ġmainly": 5930,
            "ĠBarry": 5931,
            "Ġexpression": 5932,
            "Ġnormally": 5933,
            "iliar": 5934,
            "ware": 5935,
            "hew": 5936,
            "Ġwid": 5937,
            "Ġtooth": 5938,
            "Ġwheels": 5939,
            "Ġshook": 5940,
            "Ġpapa": 5941,
            "Ġsticks": 5942,
            "ĠZeal": 5943,
            "Ġformula": 5944,
            "Ġmirror": 5945,
            "Ġdunno": 5946,
            "fessor": 5947,
            "Bart": 5948,
            "ste": 5949,
            "abeth": 5950,
            "Ġshock": 5951,
            "Ġevil": 5952,
            "ĠGeorgia": 5953,
            "Ġjigsaw": 5954,
            "back": 5955,
            "Ġess": 5956,
            "Ġforms": 5957,
            "ĠHal": 5958,
            "Ġshell": 5959,
            "ĠDis": 5960,
            "ĠGrandma": 5961,
            "BE": 5962,
            "vo": 5963,
            "Ġscience": 5964,
            "Ġmama": 5965,
            "ading": 5966,
            "ential": 5967,
            "Ġshel": 5968,
            "ishop": 5969,
            "Ġcarriage": 5970,
            "....\\": 5971,
            "ĠMayenne": 5972,
            "Ġhorsie": 5973,
            "ĠMargaret": 5974,
            "Ġcircumstances": 5975,
            "bie": 5976,
            "Ġsore": 5977,
            "ulty": 5978,
            "ĠRock": 5979,
            "asty": 5980,
            "Ġsplend": 5981,
            "Ġarg": 5982,
            "ĠUm": 5983,
            "ĠStep": 5984,
            "Ġweeke": 5985,
            "Ġwondering": 5986,
            "ournament": 5987,
            "ĠGabrie": 5988,
            "Dav": 5989,
            "Ġcad": 5990,
            "Ġfuss": 5991,
            "Ġpump": 5992,
            "ĠMax": 5993,
            "Ġdey": 5994,
            "useum": 5995,
            "*SC": 5996,
            "Ġbeauty": 5997,
            "ĠBraz": 5998,
            "ĠPilchard": 5999,
            "Ġmagazine": 6000,
            "ĠIllinois": 6001,
            "IV": 6002,
            "sed": 6003,
            "ĠHave": 6004,
            "Ġbiggest": 6005,
            "Ġmarriage": 6006,
            "Ġlanguages": 6007,
            "Ġveh": 6008,
            "Ġproperty": 6009,
            "ube": 6010,
            "was": 6011,
            "heast": 6012,
            "Ġmale": 6013,
            "ĠPh": 6014,
            "ĠRachel": 6015,
            "Ġboats": 6016,
            "Ġqueer": 6017,
            "Ġdesper": 6018,
            "Ġreceive": 6019,
            "Ġfailed": 6020,
            "Ġseparate": 6021,
            "Ġtarget": 6022,
            "Ġestablished": 6023,
            "isse": 6024,
            "Ġinternational": 6025,
            "ros": 6026,
            "ĠHAVE": 6027,
            "Ġunknown": 6028,
            "Ġshouted": 6029,
            "inter": 6030,
            "Ġbisc": 6031,
            "Ġyards": 6032,
            "Ġcy": 6033,
            "Ġselected": 6034,
            "Ġaside": 6035,
            "rol": 6036,
            "Ġbranch": 6037,
            "Ġtend": 6038,
            "ontin": 6039,
            "Ġpressure": 6040,
            "Ġelectric": 6041,
            "Ġperformance": 6042,
            "Ġtip": 6043,
            "Ġcal": 6044,
            "Ġpizza": 6045,
            "Ġnative": 6046,
            "Ġreasons": 6047,
            "herry": 6048,
            "aging": 6049,
            "Ġprove": 6050,
            "EST": 6051,
            "azed": 6052,
            "Ġjobs": 6053,
            "Ġtotally": 6054,
            "Ġcurrently": 6055,
            "Ã¶": 6056,
            "Ġaim": 6057,
            "Ġdoggy": 6058,
            "ĠTw": 6059,
            "Ġsection": 6060,
            "ĠRuth": 6061,
            "Ġagent": 6062,
            "Ġtribe": 6063,
            "gypt": 6064,
            "ĠTHIS": 6065,
            "ĠKingdom": 6066,
            "Ġperformed": 6067,
            "vin": 6068,
            "Ġwished": 6069,
            "Ġthy": 6070,
            "Ġthir": 6071,
            "ĠSun": 6072,
            "Ġcookies": 6073,
            "Ġadvice": 6074,
            "Ġdreams": 6075,
            "ĠChampionship": 6076,
            "OH": 6077,
            "Ġcam": 6078,
            "vert": 6079,
            "ellig": 6080,
            "ĠPri": 6081,
            "Ġamb": 6082,
            "Ġremoved": 6083,
            "Ġhurried": 6084,
            "Ġinterview": 6085,
            "ological": 6086,
            "Ġ*\\": 6087,
            "ĠItaly": 6088,
            "Ġthin": 6089,
            "ooke": 6090,
            "ĠTim": 6091,
            "illing": 6092,
            "ĠRes": 6093,
            "Ġexciting": 6094,
            "Ġengaged": 6095,
            "Ġrequest": 6096,
            "Ġfrequ": 6097,
            "ĠWindows": 6098,
            "ĠArkansas": 6099,
            "-e": 6100,
            "iy": 6101,
            "lie": 6102,
            "uits": 6103,
            "Ġduh": 6104,
            "Ġpale": 6105,
            "Ġgat": 6106,
            "ĠCourt": 6107,
            "Ġdism": 6108,
            "Ġmatches": 6109,
            "Those": 6110,
            "Three": 6111,
            "Ġdisappeared": 6112,
            "Ġdescribed": 6113,
            "Ġentirely": 6114,
            "Ġvoices": 6115,
            "ois": 6116,
            "vis": 6117,
            "Ġtummy": 6118,
            "ĠDutch": 6119,
            "Ġtrous": 6120,
            "Ġeaten": 6121,
            "Ġterrit": 6122,
            "Ġmetal": 6123,
            "Ġcentral": 6124,
            "Ġfortune": 6125,
            "Ġdamn": 6126,
            "Ġhighest": 6127,
            "Ġindividual": 6128,
            "EB": 6129,
            "UGH": 6130,
            "cream": 6131,
            "ĠSaint": 6132,
            "iano": 6133,
            "Ġchampions": 6134,
            "Ġactive": 6135,
            "Ġartist": 6136,
            "Ġresults": 6137,
            "Ġtradition": 6138,
            "tin": 6139,
            "Ġwine": 6140,
            "Ġsouthern": 6141,
            "ĠMaster": 6142,
            "ĠBa": 6143,
            "Ġjail": 6144,
            "ĠWomen": 6145,
            "Ġchest": 6146,
            "Ġdelicious": 6147,
            "Didn": 6148,
            "Ġnewspaper": 6149,
            "Ġveget": 6150,
            "ĠRussia": 6151,
            "ĠDemocratic": 6152,
            "Ha": 6153,
            "Ġfac": 6154,
            "ĠMam": 6155,
            "opher": 6156,
            "rig": 6157,
            "Ġsomehow": 6158,
            "Ġunderstood": 6159,
            "Ġhelps": 6160,
            "ĠHarold": 6161,
            "Ġmedical": 6162,
            "Ġpositive": 6163,
            "Ġincrease": 6164,
            "anchester": 6165,
            "eddin": 6166,
            "Cha": 6167,
            "itiz": 6168,
            "Ġghost": 6169,
            "oto": 6170,
            "ications": 6171,
            "ĠCast": 6172,
            "Ġjoke": 6173,
            "osen": 6174,
            "eme": 6175,
            "Ġthrows": 6176,
            "Ġadop": 6177,
            "ĠArmy": 6178,
            "Ġforever": 6179,
            "Something": 6180,
            "Ġkm": 6181,
            "umbo": 6182,
            "geant": 6183,
            "ĠEarth": 6184,
            "Ġsmiled": 6185,
            "Ġdrops": 6186,
            "Ġpaying": 6187,
            "Ġfairy": 6188,
            "ĠAfrican": 6189,
            ";\\": 6190,
            "Call": 6191,
            "while": 6192,
            "itar": 6193,
            "Ġnut": 6194,
            "ĠMal": 6195,
            "ilies": 6196,
            "ĠFil": 6197,
            "ĠFrost": 6198,
            "apt": 6199,
            "Ġtransfer": 6200,
            "Ġconstit": 6201,
            "Ġgentlemen": 6202,
            "Ġdamage": 6203,
            "whispers": 6204,
            "Ġautom": 6205,
            "ĠZealand": 6206,
            "ĠÃ": 6207,
            "Ġhes": 6208,
            "amily": 6209,
            "unts": 6210,
            "ĠEgypt": 6211,
            "ĠVan": 6212,
            "Ġtalks": 6213,
            "Ġfriendly": 6214,
            "ĠAla": 6215,
            "ĠBritain": 6216,
            "Ġjumped": 6217,
            "Ġcruel": 6218,
            "Ġtouched": 6219,
            "Ġideas": 6220,
            "ajesty": 6221,
            "'M": 6222,
            "li": 6223,
            "isha": 6224,
            "Ġgor": 6225,
            "Ġrib": 6226,
            "ĠBull": 6227,
            "hib": 6228,
            "ĠArt": 6229,
            "Ġhorrible": 6230,
            "Ġstudents": 6231,
            "Ġsweetheart": 6232,
            "Ġgradu": 6233,
            "ĠRemi": 6234,
            "ĠFootball": 6235,
            "Ġtrousers": 6236,
            "Other": 6237,
            "Ġpil": 6238,
            "Ġug": 6239,
            "Ġmel": 6240,
            "Ġvot": 6241,
            "Ġscore": 6242,
            "Ġcommittee": 6243,
            "Ġglance": 6244,
            "ĠBrown": 6245,
            "Ġsignific": 6246,
            "Ġprovide": 6247,
            "Ġissues": 6248,
            "ĠRoad": 6249,
            "gency": 6250,
            "ridge": 6251,
            "Ġparticip": 6252,
            "izabeth": 6253,
            "Ġdesire": 6254,
            "oki": 6255,
            "Ġprovided": 6256,
            "Everything": 6257,
            "Ġresponsible": 6258,
            "HAR": 6259,
            "fers": 6260,
            "Ġmort": 6261,
            "ette": 6262,
            "iller": 6263,
            "rying": 6264,
            "Ġadult": 6265,
            "HER": 6266,
            "Ġdrawn": 6267,
            "Ġentr": 6268,
            "Ġpuppy": 6269,
            "Ġinfluence": 6270,
            "ĠProvince": 6271,
            "nor": 6272,
            "then": 6273,
            "Â¶": 6274,
            "Ġdust": 6275,
            "icing": 6276,
            "umble": 6277,
            "ĠNight": 6278,
            "icking": 6279,
            "nee": 6280,
            "Ġends": 6281,
            "Ġreplaced": 6282,
            "Ġbeneath": 6283,
            "-D": 6284,
            "Early": 6285,
            "Ġnation": 6286,
            "ĠHER": 6287,
            "Ġsole": 6288,
            "ĠDolly": 6289,
            "ĠJason": 6290,
            "thur": 6291,
            "ĠNOT": 6292,
            "Ġdrunk": 6293,
            "Ġswitch": 6294,
            "Ġcutting": 6295,
            "Ġoccurred": 6296,
            "Lea": 6297,
            "TT": 6298,
            "ses": 6299,
            "oned": 6300,
            "Ġpant": 6301,
            "utive": 6302,
            "Ġstones": 6303,
            "ĠSal": 6304,
            "Ġsecurity": 6305,
            "Ġapparently": 6306,
            "Ġslave": 6307,
            "Ġfamiliar": 6308,
            "Ġterror": 6309,
            "Ġinstr": 6310,
            "ipping": 6311,
            "Ġinspect": 6312,
            "Ġcharacters": 6313,
            "Ġmountains": 6314,
            "Ġauthority": 6315,
            "Ġdegree": 6316,
            "Sc": 6317,
            "sung": 6318,
            "Ġfart": 6319,
            "ani": 6320,
            "Ġloose": 6321,
            "athan": 6322,
            "ĠSa": 6323,
            "Ġliber": 6324,
            "ĠGet": 6325,
            "ĠEmp": 6326,
            "ĠOther": 6327,
            "they": 6328,
            "Ġfolks": 6329,
            "ĠSecretary": 6330,
            "UCK": 6331,
            "fish": 6332,
            "Ġwore": 6333,
            "eral": 6334,
            "rond": 6335,
            "ongrat": 6336,
            "Ġcock": 6337,
            "Ġgarage": 6338,
            "Ġstomach": 6339,
            "Ġgathered": 6340,
            "'I": 6341,
            "mark": 6342,
            "pre": 6343,
            "Ã±": 6344,
            "Ġhorn": 6345,
            "ilty": 6346,
            "ands": 6347,
            "gel": 6348,
            "ĠGreek": 6349,
            "Ġcoal": 6350,
            "ocr": 6351,
            "Ġuseful": 6352,
            "Ġcats": 6353,
            "iffs": 6354,
            "Ġenjoyed": 6355,
            "Ġinnoc": 6356,
            "-year": 6357,
            "Ġdisease": 6358,
            "Ġthirteen": 6359,
            "ĠAlaeddin": 6360,
            "put": 6361,
            "vest": 6362,
            "yo": 6363,
            "Ġwound": 6364,
            "Ġfan": 6365,
            "Ġfaint": 6366,
            "llen": 6367,
            "Ġreve": 6368,
            "ĠFre": 6369,
            "ĠNed": 6370,
            "Ġspecific": 6371,
            "Ġweapons": 6372,
            "ĠRamsey": 6373,
            "Ġnearer": 6374,
            "Ġoblig": 6375,
            "En": 6376,
            "ĠTra": 6377,
            "ĠHim": 6378,
            "ĠWent": 6379,
            "ĠMarilla": 6380,
            "ĠProfessor": 6381,
            "Ġsoldier": 6382,
            "Ġdestroyed": 6383,
            "NO": 6384,
            "Ġitems": 6385,
            "Ġwashing": 6386,
            "Ġrare": 6387,
            "amin": 6388,
            "ĠMu": 6389,
            "ĠSov": 6390,
            "oston": 6391,
            "Ġarch": 6392,
            "Ġshame": 6393,
            "OULD": 6394,
            "Ġchairs": 6395,
            "Ġpossess": 6396,
            "Ġstepped": 6397,
            "Ġburning": 6398,
            "ĠCenter": 6399,
            "Ġchemical": 6400,
            "David": 6401,
            "MP": 6402,
            "MAN": 6403,
            "de": 6404,
            "mond": 6405,
            "Ġbark": 6406,
            "Ġfant": 6407,
            "Ġgather": 6408,
            "\\\"?\\": 6409,
            "Ġboots": 6410,
            "ĠAssoci": 6411,
            "Ġmusical": 6412,
            "Ġinvited": 6413,
            "Ġpattern": 6414,
            "ĠBlue": 6415,
            "Ġencour": 6416,
            "Ġweapon": 6417,
            "Cause": 6418,
            "Nice": 6419,
            "[f": 6420,
            "eta": 6421,
            "ĠSqu": 6422,
            "usted": 6423,
            "ointment": 6424,
            "iamond": 6425,
            "engu": 6426,
            "Ġhonour": 6427,
            "Ġbutterfly": 6428,
            "'h": 6429,
            "TA": 6430,
            "Ġdim": 6431,
            "Ġinvent": 6432,
            "Ġlies": 6433,
            "Ġsuffe": 6434,
            "ANG": 6435,
            "ĠChief": 6436,
            "Ġhearing": 6437,
            "Ġpoliceman": 6438,
            "-morrow": 6439,
            "Ġpropos": 6440,
            "ĠBradley": 6441,
            "ĠJimmy": 6442,
            "Ġcandy": 6443,
            "ĠFrancis": 6444,
            "rondisse": 6445,
            "Ben": 6446,
            "krain": 6447,
            "Ġtied": 6448,
            "Ġfier": 6449,
            "Ġtoile": 6450,
            "ĠMajor": 6451,
            "Ġsaving": 6452,
            "Ġcurious": 6453,
            "Ġeastern": 6454,
            "Ġlearning": 6455,
            "ĠBarty": 6456,
            "Ġforgive": 6457,
            "Ġdefend": 6458,
            "-T": 6459,
            "Fine": 6460,
            "pir": 6461,
            "Ġhabit": 6462,
            "ĠBible": 6463,
            "ĠBrian": 6464,
            "ĠDou": 6465,
            "estival": 6466,
            "Ġquit": 6467,
            "bec": 6468,
            "Ġchosen": 6469,
            "Ġbitch": 6470,
            "igned": 6471,
            "Ġboxes": 6472,
            "Ġdrove": 6473,
            "Ġordinary": 6474,
            "Ġlifted": 6475,
            "ĠTurk": 6476,
            "Ġearnest": 6477,
            "!'": 6478,
            "-P": 6479,
            "Ġbones": 6480,
            "Ġcash": 6481,
            "Ġfal": 6482,
            "Ġlone": 6483,
            "ĠCongress": 6484,
            "ĠHill": 6485,
            "ĠDa": 6486,
            "Ġvent": 6487,
            "Ġquack": 6488,
            "Ġgrate": 6489,
            "Ġwarri": 6490,
            "shouts": 6491,
            "Ġclosely": 6492,
            "Ġsweetie": 6493,
            "Ġconcent": 6494,
            "which": 6495,
            "ournal": 6496,
            "ĠCanadian": 6497,
            "-E": 6498,
            "-You": 6499,
            "pri": 6500,
            "Ġ..": 6501,
            "Ġyard": 6502,
            "Ġfired": 6503,
            "Ġfreed": 6504,
            "esota": 6505,
            "Ġpic": 6506,
            "Ġladder": 6507,
            "Ġbeast": 6508,
            "Ġrang": 6509,
            "Ġrushed": 6510,
            "ĠSultan": 6511,
            "ĠTer": 6512,
            "Ġsociety": 6513,
            "ability": 6514,
            "ĠWolf": 6515,
            "ĠFanning": 6516,
            "ĠRush": 6517,
            "odes": 6518,
            "Ġbricks": 6519,
            "ĠKansas": 6520,
            "Ġfourteen": 6521,
            "ĠMission": 6522,
            "ipper": 6523,
            "ĠAtl": 6524,
            "Ġapproach": 6525,
            "Ġobserved": 6526,
            "Ġarrested": 6527,
            "HHH": 6528,
            "TS": 6529,
            "Ġpile": 6530,
            "Ġrank": 6531,
            "Ġrush": 6532,
            "ĠMich": 6533,
            "Ġcomedy": 6534,
            "Ġowner": 6535,
            "Ġraise": 6536,
            "Shut": 6537,
            "Ġaccepted": 6538,
            "Ġgalley": 6539,
            "Ġmaterial": 6540,
            "ĠMinnesota": 6541,
            "Ġweekend": 6542,
            "Alex": 6543,
            "sque": 6544,
            "Ġlack": 6545,
            "ĠMia": 6546,
            "alled": 6547,
            "Ġnope": 6548,
            "ctors": 6549,
            "ĠFa": 6550,
            "ĠFirst": 6551,
            "merican": 6552,
            "ĠVal": 6553,
            "Ġpulling": 6554,
            "Ġdarkness": 6555,
            "Ġtypes": 6556,
            "Ġrolling": 6557,
            "aspberry": 6558,
            "*HHH": 6559,
            "Ġhee": 6560,
            "ĠMass": 6561,
            "ĠDen": 6562,
            "Ġshh": 6563,
            "ĠWood": 6564,
            "Ġchanging": 6565,
            "Ġbreaking": 6566,
            "Ġacid": 6567,
            "Ġshooting": 6568,
            "------------------------": 6569,
            "Ġlemme": 6570,
            "ĠWentworth": 6571,
            "boy": 6572,
            "Ġdoo": 6573,
            "Ġfacing": 6574,
            "Ġlamb": 6575,
            "imme": 6576,
            "umps": 6577,
            "eps": 6578,
            "Ġproced": 6579,
            "Ġarrang": 6580,
            "teve": 6581,
            "Ġthroughout": 6582,
            "Ġpicking": 6583,
            "ception": 6584,
            "Ġkidding": 6585,
            "Ġcookie": 6586,
            "ĠPrince": 6587,
            "Ġfailure": 6588,
            "Dad": 6589,
            "lock": 6590,
            "Ġtear": 6591,
            "Ġcas": 6592,
            "Ġpages": 6593,
            "Ġgained": 6594,
            "rier": 6595,
            "ivity": 6596,
            "Ġminor": 6597,
            "*KN": 6598,
            "Ġhighly": 6599,
            "Ġreported": 6600,
            "Ġequip": 6601,
            "ĠMickey": 6602,
            "lers": 6603,
            "Ġ)\\": 6604,
            "Ġsen": 6605,
            "Ġpushing": 6606,
            "Ġlord": 6607,
            "aring": 6608,
            "uted": 6609,
            "Ġbranc": 6610,
            "Ġguilty": 6611,
            "Ġowned": 6612,
            "Ġincident": 6613,
            ".\\\"]\\": 6614,
            "Ġcraft": 6615,
            "Ġdesigned": 6616,
            "ĠOlympic": 6617,
            "Ġdocument": 6618,
            "ĠRoger": 6619,
            "yr": 6620,
            "Ġtoss": 6621,
            "Ġsem": 6622,
            "ĠHad": 6623,
            "Ġboom": 6624,
            "Ġpron": 6625,
            "Ġhurts": 6626,
            "Ġgiant": 6627,
            "RIC": 6628,
            "Ġtransport": 6629,
            "Ġjacket": 6630,
            "Ġmadam": 6631,
            "Ġcreate": 6632,
            "Ġintroduced": 6633,
            "Ġbodies": 6634,
            "Ġsplendid": 6635,
            ".âĢĿ": 6636,
            "[add": 6637,
            "Ġtough": 6638,
            "iece": 6639,
            "Ġupside": 6640,
            "ĠPo": 6641,
            "ĠGar": 6642,
            "ĠLu": 6643,
            "emies": 6644,
            "Ġcrim": 6645,
            "ĠEdmund": 6646,
            "ĠSwed": 6647,
            "Ġbanana": 6648,
            "views": 6649,
            "ĠGraeme": 6650,
            "ĠPakistan": 6651,
            "Mad": 6652,
            "yes": 6653,
            "Ġcave": 6654,
            "Ġmap": 6655,
            "Ġdiss": 6656,
            "Ġfaster": 6657,
            "esides": 6658,
            "Ġpor": 6659,
            "Ġnerv": 6660,
            "ĠBO": 6661,
            "ĠWITH": 6662,
            "Ġsuck": 6663,
            "Ġcompos": 6664,
            "ĠEdward": 6665,
            "Ġstrike": 6666,
            "Ġcompetition": 6667,
            "Ġadvantage": 6668,
            "keys": 6669,
            "cho": 6670,
            "ĠBoston": 6671,
            "anton": 6672,
            "âĢľThe": 6673,
            "âĢľWhat": 6674,
            "Ġstring": 6675,
            "Ġbadly": 6676,
            "Ġmethod": 6677,
            "ĠPatty": 6678,
            "ropical": 6679,
            "-sh": 6680,
            "Again": 6681,
            "bling": 6682,
            "Ġcitiz": 6683,
            "enced": 6684,
            "Ġhook": 6685,
            "elled": 6686,
            "Ġconce": 6687,
            "ĠKim": 6688,
            "Ġcovers": 6689,
            "Ġuns": 6690,
            "Ġsmooth": 6691,
            "Ġlaws": 6692,
            "Ġcircus": 6693,
            "Ġmummie": 6694,
            "Ġtoilet": 6695,
            "Ġbone": 6696,
            "enger": 6697,
            "Ġnuts": 6698,
            "\\\"]\\": 6699,
            "ĠSouthern": 6700,
            "ĠTri": 6701,
            "ĠCross": 6702,
            "iffe": 6703,
            "uchi": 6704,
            "Ġsignal": 6705,
            "Ġincred": 6706,
            "ĠPrime": 6707,
            "Ġdifficulty": 6708,
            "ĠGreater": 6709,
            "Ġinterrupts": 6710,
            "Ġelder": 6711,
            "Su": 6712,
            "bury": 6713,
            "Ġtournament": 6714,
            "happy": 6715,
            "Ġmile": 6716,
            "Ġfence": 6717,
            "ali": 6718,
            "Ġliqu": 6719,
            "umed": 6720,
            "ĠLie": 6721,
            "ĠRec": 6722,
            "Ġsprang": 6723,
            "ARD": 6724,
            "Ġfamilies": 6725,
            "Ġrealized": 6726,
            "Ġtribes": 6727,
            "Once": 6728,
            "Ġrecords": 6729,
            "ĠDavis": 6730,
            "Ġprogramme": 6731,
            "ĠCentral": 6732,
            "Ġactivity": 6733,
            "Ġhammer": 6734,
            "During": 6735,
            "UL": 6736,
            "war": 6737,
            "Ġdump": 6738,
            "Ġpoo": 6739,
            "icop": 6740,
            "Ġrise": 6741,
            "ĠMet": 6742,
            "ĠSee": 6743,
            "ĠSpr": 6744,
            "ĠALL": 6745,
            "ĠPan": 6746,
            "ĠLike": 6747,
            "ĠRel": 6748,
            "ĠNE": 6749,
            "inda": 6750,
            "Ġrestaur": 6751,
            "Ġdivor": 6752,
            "ĠSuper": 6753,
            "ĠCasson": 6754,
            ").\"Ċ": 6755,
            "affe": 6756,
            "Ġ--": 6757,
            "onia": 6758,
            "lyn": 6759,
            "Ġseek": 6760,
            "owned": 6761,
            "Ġtruly": 6762,
            "Ġuniversity": 6763,
            "Ġeats": 6764,
            "Ġresour": 6765,
            "Ġlistened": 6766,
            "Ġapartment": 6767,
            "Ġhasta": 6768,
            "[aft": 6769,
            "Ġpillow": 6770,
            "Ġsuffered": 6771,
            "-and": 6772,
            "Ind": 6773,
            "KING": 6774,
            "gt": 6775,
            "mun": 6776,
            "making": 6777,
            "Ġsang": 6778,
            "reck": 6779,
            "Ġstol": 6780,
            "ĠSel": 6781,
            "Ġsav": 6782,
            "ĠLight": 6783,
            "Ġsport": 6784,
            "ĠAnn": 6785,
            "alds": 6786,
            "engers": 6787,
            "Ġbesides": 6788,
            "ĠAustralian": 6789,
            "Ġapolog": 6790,
            "ĠMichigan": 6791,
            "Bet": 6792,
            "CA": 6793,
            "lim": 6794,
            "erable": 6795,
            "Ġcough": 6796,
            "ormed": 6797,
            "Ġpadd": 6798,
            "ĠWestern": 6799,
            "aren": 6800,
            "Ġimit": 6801,
            "Ġprotest": 6802,
            "Ġdrugs": 6803,
            "ĠOxford": 6804,
            "Fl": 6805,
            "HL": 6806,
            "there": 6807,
            "Ġwra": 6808,
            "Ġwounded": 6809,
            "sell": 6810,
            "Ġsevere": 6811,
            "Ġupper": 6812,
            "ĠLong": 6813,
            "Ġcommer": 6814,
            "Ġcris": 6815,
            "Ġsurely": 6816,
            "Ġharder": 6817,
            "mpat": 6818,
            "Ġsixteen": 6819,
            "fecture": 6820,
            "Ġhearts": 6821,
            "Ġcloth": 6822,
            "ĠCommittee": 6823,
            "Ġpowder": 6824,
            "Ġcredit": 6825,
            "Actually": 6826,
            ",]": 6827,
            "eks": 6828,
            "rison": 6829,
            "Ġouch": 6830,
            "Ġaid": 6831,
            "ĠBon": 6832,
            "ĠFar": 6833,
            "ĠLove": 6834,
            "Ġspo": 6835,
            "Ġspare": 6836,
            "Ġsomethin": 6837,
            "Ġaccess": 6838,
            "Ġintended": 6839,
            "ĠBefore": 6840,
            "Ġcrossed": 6841,
            "ĠMexican": 6842,
            "kisses": 6843,
            "ĠSoviet": 6844,
            "*RIC": 6845,
            "tr": 6846,
            "Ġx": 6847,
            "Ġpup": 6848,
            "Ġhug": 6849,
            "Ġholes": 6850,
            "ĠSomet": 6851,
            "ĠBilly": 6852,
            "ulate": 6853,
            "nthat": 6854,
            "agu": 6855,
            "âĢĿ.\\": 6856,
            "Ġsmiles": 6857,
            "Ġseriously": 6858,
            "Ġdelay": 6859,
            "ĠYOUR": 6860,
            "ealous": 6861,
            "Ġequal": 6862,
            "Ġprincess": 6863,
            "ĠRobin": 6864,
            "-hm": 6865,
            "giggles": 6866,
            "Ġast": 6867,
            "Ġwaves": 6868,
            "Ġborder": 6869,
            "Ġgay": 6870,
            "Ġrising": 6871,
            "ĠRay": 6872,
            "ĠUkrain": 6873,
            "wey": 6874,
            "Ġours": 6875,
            "Ġpoison": 6876,
            "Ġdishes": 6877,
            "Ġleague": 6878,
            "Ġstandard": 6879,
            "Ġrecorder": 6880,
            "Ġrecording": 6881,
            "ĠAgnes": 6882,
            "Ġcaptured": 6883,
            "Ġsettlement": 6884,
            "ĠRepublican": 6885,
            "Ġindustry": 6886,
            "Ġfeatures": 6887,
            "Ġequipment": 6888,
            "Ġbranches": 6889,
            "Today": 6890,
            "lam": 6891,
            "Ġtal": 6892,
            "Ġaunt": 6893,
            "Ġbounc": 6894,
            "ĠEric": 6895,
            "Ġchips": 6896,
            "ĠYoung": 6897,
            "Ġtrial": 6898,
            "*JUD": 6899,
            "Ġsending": 6900,
            "Ġlocked": 6901,
            "Ġsplit": 6902,
            "Ġslept": 6903,
            "ban": 6904,
            "gi": 6905,
            "Ġcongress": 6906,
            "Ġhen": 6907,
            "Ġrhy": 6908,
            "ĠMA": 6909,
            "ĠServ": 6910,
            "ĠCath": 6911,
            "ĠFe": 6912,
            "ĠOl": 6913,
            "odd": 6914,
            "ĠUN": 6915,
            "Nobody": 6916,
            "Ġunf": 6917,
            "Ġunus": 6918,
            "Ġactual": 6919,
            "*MW": 6920,
            "Ġappointed": 6921,
            "Ġtraffic": 6922,
            "Ġproposed": 6923,
            "Ġbalance": 6924,
            "-le": 6925,
            "IG": 6926,
            "rin": 6927,
            "ras": 6928,
            "||": 6929,
            "Ġrope": 6930,
            "sters": 6931,
            "ĠDes": 6932,
            "Ġconsequ": 6933,
            "agn": 6934,
            "Ġbrings": 6935,
            "reeks": 6936,
            "Ġkindly": 6937,
            "Ġsword": 6938,
            "Ġpresently": 6939,
            "aze": 6940,
            "Ġkilling": 6941,
            "Ġkissed": 6942,
            "Ġavoid": 6943,
            "Ġefforts": 6944,
            "ĠKorea": 6945,
            "Ġstreets": 6946,
            "Ge": 6947,
            "Ġaston": 6948,
            "Ġwinning": 6949,
            "Ġfoll": 6950,
            "Ġnic": 6951,
            "oms": 6952,
            "Ġstern": 6953,
            "ĠLO": 6954,
            "iana": 6955,
            "Ġchain": 6956,
            "Ġtrains": 6957,
            "Ġbuildings": 6958,
            "Ġproduction": 6959,
            "Ġcompanies": 6960,
            "Ġcandid": 6961,
            "ĠAlfgar": 6962,
            "ĠUrsula": 6963,
            "Love": 6964,
            "Ġborrow": 6965,
            "Ġcot": 6966,
            "Ġdwell": 6967,
            "Ġhidden": 6968,
            "ams": 6969,
            "Ġmeas": 6970,
            "Ġwhee": 6971,
            "ĠLwww": 6972,
            "lfr": 6973,
            "Ġlets": 6974,
            "Ġgreatly": 6975,
            "Ġrelax": 6976,
            "Ġï¿½ï¿½ï¿½ï¿½ï¿½": 6977,
            "Ġsigns": 6978,
            "Ġplanned": 6979,
            "Ġlads": 6980,
            "Should": 6981,
            "Ġclimbing": 6982,
            "Ġmixed": 6983,
            "Ġaffair": 6984,
            "[addressed": 6985,
            "*HAR": 6986,
            "Sm": 6987,
            "mad": 6988,
            "intend": 6989,
            "Ġtheory": 6990,
            "Ġwashed": 6991,
            "Ġanti": 6992,
            "eable": 6993,
            "ĠHolly": 6994,
            "rael": 6995,
            "Ġenemies": 6996,
            "Ġrooms": 6997,
            "ĠAndy": 6998,
            "ĠAmericans": 6999,
            "Ġrecorded": 7000,
            "ĠRepresent": 7001,
            "Ġtreated": 7002,
            "playing": 7003,
            "Sometimes": 7004,
            "Ġnominated": 7005,
            "Ġsource": 7006,
            "Ġappreciate": 7007,
            "'n": 7008,
            "While": 7009,
            "ture": 7010,
            "zer": 7011,
            "Å«": 7012,
            "Ġtent": 7013,
            "Ġcalc": 7014,
            "Ġath": 7015,
            "ĠHor": 7016,
            "ĠPapa": 7017,
            "olph": 7018,
            "Ġboot": 7019,
            "ĠKen": 7020,
            "ialect": 7021,
            "Ġresist": 7022,
            "ailed": 7023,
            "Ġdeliver": 7024,
            "ĠHarris": 7025,
            "Ġvictory": 7026,
            "Ġflew": 7027,
            "Ġdistributed": 7028,
            "lfriend": 7029,
            "Ġhockey": 7030,
            "usic": 7031,
            "Ġlibr": 7032,
            "ĠPooh": 7033,
            "ĠDet": 7034,
            "Ġspeaks": 7035,
            "hia": 7036,
            "Ġprecious": 7037,
            "Ġkeys": 7038,
            "Ġhousehold": 7039,
            "Stay": 7040,
            "Ġrolls": 7041,
            "-time": 7042,
            "Ġmajority": 7043,
            "Ġcompanions": 7044,
            "RY": 7045,
            "overy": 7046,
            "Ġinha": 7047,
            "stead": 7048,
            "quar": 7049,
            "--\\\"": 7050,
            "Ġguest": 7051,
            "Ġchannel": 7052,
            "Ġdeser": 7053,
            "Ġwondered": 7054,
            "ippi": 7055,
            "Ġproduce": 7056,
            "ĠConf": 7057,
            "-house": 7058,
            "Ġbriefly": 7059,
            "Ġrapidly": 7060,
            "Ġlonely": 7061,
            "SE": 7062,
            "ige": 7063,
            "ym": 7064,
            "Ġwire": 7065,
            "ĠSince": 7066,
            "ĠHot": 7067,
            "Ġjealous": 7068,
            "Ġsofa": 7069,
            "uma": 7070,
            "umm": 7071,
            "ĠFair": 7072,
            "ĠKNOW": 7073,
            "Ġleans": 7074,
            "Ġpregn": 7075,
            "ĠVer": 7076,
            "Ġslipped": 7077,
            "Ġrecom": 7078,
            "ĠJohnson": 7079,
            "Ġhandsome": 7080,
            "Ġleaders": 7081,
            "Ġhoping": 7082,
            "Ġcritic": 7083,
            "ĠAssociation": 7084,
            "-G": 7085,
            "Mother": 7086,
            "OB": 7087,
            "ĠBre": 7088,
            "ellow": 7089,
            "ĠPen": 7090,
            "ĠPenn": 7091,
            "ĠFire": 7092,
            "Ġsuffic": 7093,
            "Ġunfortun": 7094,
            "Ġbecomes": 7095,
            "ĠDewey": 7096,
            "ĠThree": 7097,
            "Ġsquir": 7098,
            "Whoa": 7099,
            "Ġdivision": 7100,
            "ĠThanks": 7101,
            "[B": 7102,
            "Ġbent": 7103,
            "Ġmike": 7104,
            "Ġpension": 7105,
            "Ġpiano": 7106,
            "Ġhipp": 7107,
            "Ġbears": 7108,
            "ador": 7109,
            "ĠWal": 7110,
            "ĠFin": 7111,
            "ĠFore": 7112,
            "âĢľAnd": 7113,
            "Ġgrant": 7114,
            "rences": 7115,
            "neath": 7116,
            "Ġpointed": 7117,
            "Ġphil": 7118,
            "atively": 7119,
            "Ġmedal": 7120,
            "-de": 7121,
            "Ġoriginally": 7122,
            "Ġburned": 7123,
            "scream": 7124,
            "Ġprisoner": 7125,
            "bour": 7126,
            "bel": 7127,
            "cod": 7128,
            "Ġdish": 7129,
            "Ġfed": 7130,
            "Ġknight": 7131,
            "ĠHello": 7132,
            "ĠDE": 7133,
            "Ġsaus": 7134,
            "âĢľThat": 7135,
            "issippi": 7136,
            "*MB": 7137,
            "Ġcolour": 7138,
            "ibi": 7139,
            "Ġjumping": 7140,
            "vocalizes": 7141,
            "Ġaltogether": 7142,
            "Car": 7143,
            "Cap": 7144,
            "bage": 7145,
            "hus": 7146,
            "press": 7147,
            "Ġoop": 7148,
            "Ġdialect": 7149,
            "Ġpity": 7150,
            "Ġgimme": 7151,
            "stery": 7152,
            "cend": 7153,
            "Ġmyster": 7154,
            "elia": 7155,
            "*FAD": 7156,
            "âĢľNo": 7157,
            "Ġoldest": 7158,
            "eaking": 7159,
            "Ġsympat": 7160,
            "Ġgrandmother": 7161,
            "Ġtyp": 7162,
            "Ġattacked": 7163,
            "Ġemergency": 7164,
            "Ġindependent": 7165,
            "ĠRolan": 7166,
            "ĠGabriella": 7167,
            "-out": 7168,
            "ancial": 7169,
            "alph": 7170,
            "Ġseats": 7171,
            "ĠPop": 7172,
            "artment": 7173,
            "Ġqueen": 7174,
            "uddle": 7175,
            "Ġtender": 7176,
            "Ġdesert": 7177,
            "Ġdistinct": 7178,
            "gery": 7179,
            "Ġawake": 7180,
            "Ġsteady": 7181,
            "Think": 7182,
            "ĠCompany": 7183,
            "Ġchecked": 7184,
            "Ġdivided": 7185,
            "Ġorganization": 7186,
            "[points": 7187,
            "*Y": 7188,
            "Ros": 7189,
            "Sit": 7190,
            "Ġtiss": 7191,
            "ĠSH": 7192,
            "ĠShan": 7193,
            "Ġdemon": 7194,
            "olit": 7195,
            "Ġplus": 7196,
            "elcome": 7197,
            "ĠLook": 7198,
            "ĠRod": 7199,
            "Ġagre": 7200,
            "Ġbetray": 7201,
            "lings": 7202,
            "Ġcontent": 7203,
            "Ġbreast": 7204,
            "aska": 7205,
            "Ġtransl": 7206,
            "Ġcreature": 7207,
            "Ġexperien": 7208,
            "ĠDaniel": 7209,
            "Ġmanagement": 7210,
            "Ġculture": 7211,
            "olarship": 7212,
            "Ġexercise": 7213,
            "Hmm": 7214,
            "Over": 7215,
            "bu": 7216,
            "met": 7217,
            "Ġpushes": 7218,
            "Ġthorough": 7219,
            "Ġbeer": 7220,
            "Ġwhenever": 7221,
            "ĠKelly": 7222,
            "Ġblame": 7223,
            "IST": 7224,
            "ancing": 7225,
            "OUT": 7226,
            "standing": 7227,
            "Ġstudio": 7228,
            "Everyone": 7229,
            "hetti": 7230,
            "Ġsatisfied": 7231,
            "Ġshadow": 7232,
            "Ġescaped": 7233,
            "Ġnervous": 7234,
            ",I": 7235,
            "Ġbunch": 7236,
            "Ġdea": 7237,
            "Ġlit": 7238,
            "Ġbelly": 7239,
            "\\\"'": 7240,
            "ĠTig": 7241,
            "ĠNick": 7242,
            "onder": 7243,
            "Ġhelicop": 7244,
            "Ġsuppl": 7245,
            "Ġsorts": 7246,
            "Ġexpensive": 7247,
            "Ġconfidence": 7248,
            "Ġfields": 7249,
            "Ġpigs": 7250,
            "ĠAdams": 7251,
            "Ġmammy": 7252,
            "Ġprofessor": 7253,
            "Grand": 7254,
            "Ġpirates": 7255,
            "ĠPortug": 7256,
            "Ġinquired": 7257,
            "Ġproducer": 7258,
            "Ġsurround": 7259,
            "Ġevidently": 7260,
            "Ġsisters": 7261,
            "-What": 7262,
            "El": 7263,
            "Huh": 7264,
            "gues": 7265,
            "iture": 7266,
            "Ġcouch": 7267,
            "Ġdiamond": 7268,
            "Ġlin": 7269,
            "icide": 7270,
            "Ġee": 7271,
            "Ġrifle": 7272,
            "ĠSP": 7273,
            "Ġsequ": 7274,
            "uries": 7275,
            "Ġsoap": 7276,
            "unning": 7277,
            "aine": 7278,
            "Ġbrand": 7279,
            "Ġuncom": 7280,
            "ileen": 7281,
            "Ġbitter": 7282,
            "Ġrelief": 7283,
            "umbled": 7284,
            "ĠElizabeth": 7285,
            "Ġicecream": 7286,
            "ĠWilliams": 7287,
            "ĠPerhaps": 7288,
            "ĠBuild": 7289,
            "stein": 7290,
            "'RE": 7291,
            "-off": 7292,
            "April": 7293,
            "Help": 7294,
            "ties": 7295,
            "hell": 7296,
            "Ġmig": 7297,
            "ĠBang": 7298,
            "ĠWinn": 7299,
            "ĠJerry": 7300,
            "ĠGirl": 7301,
            "Ġgrace": 7302,
            "Ġamend": 7303,
            "oving": 7304,
            "ĠYear": 7305,
            "gging": 7306,
            "Ġsetting": 7307,
            "Ġdecor": 7308,
            "Ġpresented": 7309,
            "Ġmarked": 7310,
            "Ġcontroll": 7311,
            "Ġrequired": 7312,
            "moans": 7313,
[...]
